{"": 50590, "balus": 42617, "\ufe35</w>": 56365, "coureurs</w>": 9618, "dal": 5902, "caq</w>": 29049, "attentat</w>": 5548, "graphes</w>": 25755, "rendra</w>": 10566, "foster</w>": 36243, "tripl\u00e9</w>": 23597, "\u698e": 62217, "charmant</w>": 8176, "casual</w>": 40848, "d\u00e9coupes</w>": 39633, "\u6a4b</w>": 52047, "infrastructures</w>": 3775, "\u00e9clats</w>": 14182, "scor": 14848, "\u0db7": 63797, "\u78b1": 65675, "d\u00e9courager</w>": 21571, "\u1eab</w>": 58099, "\u63da</w>": 57111, "ac-": 26764, "\u7c7b</w>": 65767, "nazi": 39433, "tzig": 46190, "strat\u00e9": 48365, "gabon</w>": 12835, "\u2264": 64298, "honorables</w>": 35164, "lotion</w>": 34356, "\u76f4</w>": 54347, "\u06b1</w>": 61253, "\u90eb": 62876, "\u1f66</w>": 51024, "parition</w>": 50441, "greenpeace</w>": 24613, "\u7281</w>": 65480, "\u767b</w>": 54345, "gai": 20169, "ts.</w>": 46219, "\u93de": 66485, "\u1308</w>": 56945, "8</w>": 346, "ra-": 26602, "timbres</w>": 18676, "\u0aab</w>": 59860, "rachel</w>": 16671, "\u6559": 51450, "d\u00e9clenchement</w>": 13596, "\u3148</w>": 58136, "ultr": 28780, "anis</w>": 27099, "benne</w>": 40768, "ad": 862, "bou</w>": 21681, "\u6d0b</w>": 53731, "\u23e0</w>": 61607, "curieusement</w>": 18637, "mila</w>": 39441, "fibres</w>": 5635, "roland-": 49829, "1866</w>": 27299, "tataire</w>": 40257, "concernant</w>": 562, "\u54b1</w>": 59083, "toponyme</w>": 36495, "\u7686</w>": 62416, "catalytique</w>": 34011, "\u8cfd": 59522, "royaux</w>": 28463, "imm\u00e9diate</w>": 6181, "myo": 26600, "com\u00e9dies</w>": 20630, "aimeraient</w>": 27224, "terre-neuve</w>": 25029, "\u98de": 54096, "compliments</w>": 25510, "paradoxalement</w>": 14669, "\u6d3e</w>": 52155, "comm\u00e9mor": 21790, "\u1d30</w>": 50471, "60-": 34343, "\u026e": 58796, "s\u00e9vices</w>": 32073, "box</w>": 5134, "\u00e9tabl": 26662, "\u5047": 53537, "compl": 10920, "\u786f</w>": 59362, "\u796d</w>": 52808, "\u4e5c</w>": 61729, "\u019f</w>": 63487, "\u1270": 53050, "poussi": 31935, "\u7d2b</w>": 58471, "\u79bf": 65703, "nov</w>": 14660, "ariel</w>": 29993, "\ud835\udc84</w>": 53038, "55</w>": 2409, "parent\u00e9</w>": 19638, "shad": 31431, "d\u00e9charges</w>": 31834, "\u98a0</w>": 66634, "friendly</w>": 45585, "r5</w>": 46785, "fluorescence</w>": 44109, "infinit\u00e9</w>": 32652, "\ufe82": 67251, "nb</w>": 11209, "\u2d41": 60042, "arm\u00e9es</w>": 3897, "2,8</w>": 17301, "\u0f4f": 61378, "\u7336</w>": 62370, "\u760b": 60565, "ann": 4347, "3,": 3787, "actuel</w>": 1842, "omelette</w>": 35758, "c\u00e9page</w>": 28779, "kel": 11011, "friction</w>": 31285, "d\u00e9nonce</w>": 7602, "\u638c</w>": 56621, "\u00f1a</w>": 22720, "gr\u00e2ces</w>": 17779, "\u76fc": 62423, "intergouvernementale</w>": 30050, "\ud802\udc4d</w>": 67416, "kin\u00e9si": 33198, "parents</w>": 906, "nikkei</w>": 40940, "vo\u00fbtes</w>": 28502, "ole</w>": 6011, "commises</w>": 12910, "monie</w>": 41658, "kidnapp": 22649, "\u51fd": 58186, "weis": 46563, "illet": 26391, "r\u00e9alisation</w>": 1381, "polation</w>": 40021, "d\u00e9finition</w>": 2095, "m\u00e9dian</w>": 22208, "sen</w>": 5223, "introdu": 14554, "\u9785</w>": 58653, "promon": 49322, "comptabilis\u00e9</w>": 45525, "\ua799</w>": 63146, "\u00e9conomiquement</w>": 15222, "d\u00e9formation</w>": 18470, "compas</w>": 41242, "\u61be</w>": 60327, "\u9676": 53325, "pratiqu\u00e9</w>": 11817, "promeut</w>": 31254, "partition</w>": 9670, "\ud835\udf07</w>": 61130, "\u5904": 56569, "\u7948</w>": 59369, "observons</w>": 37153, "cornes</w>": 18278, "\u71c9</w>": 65453, "r\u00e9mi</w>": 18720, "155</w>": 19760, "relever</w>": 4284, "inhibition</w>": 28828, "accueill": 23321, "\u1fc4": 52294, "acoustiques</w>": 23736, "fic</w>": 27090, "\u6843</w>": 53727, "barbel": 48961, "\u00f4tre</w>": 49325, "circ</w>": 40839, "\u516d": 51747, "shopping": 49531, "\u5e2d</w>": 55307, "perle</w>": 13586, "sous-groupe</w>": 45265, "leton</w>": 33080, "\u7c8b</w>": 59396, "\u742e</w>": 59337, "alises</w>": 46738, "\u7d2b": 52303, "rhum</w>": 18071, "took</w>": 43722, "\u2ca7</w>": 58989, "rendaient</w>": 24484, "diplomatie</w>": 8928, "\u4e7e</w>": 56515, "rigide</w>": 11449, "\u55da": 64685, "kin</w>": 9125, "bor\u00e9": 22685, "fonci": 48820, "\u82cd</w>": 65983, "\u6dc0</w>": 65316, "ressource</w>": 7396, "longchamp</w>": 46127, "homolo": 28047, "h\u00e9ro\u00efque</w>": 18792, "mik": 22420, "propyl\u00e8ne</w>": 47933, "clear": 32474, "compacts</w>": 35179, "confront\u00e9s</w>": 9175, "comptabilis\u00e9s</w>": 36685, "\u10df": 56436, "diers</w>": 28793, "clubs</w>": 3584, "v\u00e9lo</w>": 3330, "bracelet</w>": 11859, "sunni": 50209, "\u793c</w>": 54508, "menteurs</w>": 46597, "\u6e58</w>": 56667, "auss-": 50243, "destructeurs</w>": 46681, "copenhague</w>": 14200, "massives</w>": 18384, "incor": 47699, "in\u00e9branl": 49426, "yun": 37559, "p\u00e2ques</w>": 10279, "\u796d": 53161, "\u1e69</w>": 58956, "\u0f0b</w>": 50504, "vla": 29773, "d\u00e9nich\u00e9</w>": 44781, "d\u00e9guisements</w>": 43324, "\u0973</w>": 63663, "emer": 20476, "jaillir</w>": 40911, "om\u00e9trage</w>": 49313, "casablanca</w>": 17716, "subsiste</w>": 15731, "emp\u00eache</w>": 3556, "inquisi": 35217, "\u0d24": 53348, "\u4e45</w>": 52845, "aume</w>": 42366, "15h": 34160, "apparemment</w>": 5178, "\u0e53</w>": 63805, "side</w>": 11009, "fini": 23273, "thermo": 11635, "abordables</w>": 18886, "ravisseurs</w>": 39207, "appuyait</w>": 39844, "aqua": 38816, "exe</w>": 17176, "\u5ee0</w>": 55545, "technologie</w>": 1716, "s\u00e8ment</w>": 38408, "\u8425": 54715, "rassemblement</w>": 6249, "musicales</w>": 10044, "appel\u00e9</w>": 1755, "aspiration</w>": 13719, "\uc555": 61038, "nutrition</w>": 11271, "blog</w>": 1447, "mutations</w>": 11199, "\u1837": 56467, "ira": 14638, "automatiquement</w>": 3420, "trump</w>": 3483, "clin": 25911, "int\u00e9grer</w>": 3192, ".": 372, "\u12ed</w>": 53789, "bia</w>": 16018, "signature</w>": 3495, "\u87f9": 60738, "1841</w>": 33686, "polytechnique</w>": 20038, "imm\u00e9di": 49833, "mondiaux</w>": 7084, "\u0a85": 58867, "terry</w>": 23474, "ables": 26383, "\u0c9a</w>": 63760, "order": 49514, "\u54ee</w>": 61864, "\u0265": 52166, "pr\u00e9vaut</w>": 24518, "recr\u00e9": 29644, "am\u00e9nagements</w>": 10532, "ica</w>": 20043, "expuls\u00e9s</w>": 28476, "disparates</w>": 42990, "morgue</w>": 37679, "chapelle</w>": 4698, "8,7</w>": 37278, "spammeurs</w>": 45286, "\u96e8": 52819, "m\u00e9thyl": 37954, "not\u00e9</w>": 5330, "\u8015": 57216, "addic": 23366, "pyramides</w>": 29499, "anniversaire</w>": 2909, "\u7962</w>": 62453, "d\u00e9codeur</w>": 32454, "dure</w>": 3328, "\u305c</w>": 58126, "am\u00e9nag\u00e9</w>": 11005, "\u30ef": 51642, "\u00e6</w>": 22804, "50.": 33968, "auds</w>": 22999, "quarter</w>": 35088, "\u6a02": 51995, "\u94fa": 62927, "strauss-kahn</w>": 26772, "invit\u00e9invit\u00e9</w>": 45757, "transac": 44685, "singes</w>": 18002, "vicomte</w>": 25140, "\ub7ff": 66987, "\u5c65": 64852, "encor</w>": 46005, "tournois</w>": 11820, "innocence</w>": 11604, "s-ci</w>": 47571, "b\u00e8re</w>": 28905, "\u03e1": 63549, "minoritaire</w>": 17101, "conservation</w>": 4092, "ramifications</w>": 42807, "n": 392, "miri": 42636, "maps</w>": 27107, "invariablement</w>": 36874, "aisie</w>": 49378, "soup": 48389, "romande</w>": 35830, "\u00e9levage</w>": 6163, "impuissance</w>": 13950, "terr": 13118, "r\u00e9daction</w>": 3701, "occiden": 49741, "brasi": 45882, "d\u00e9cisives</w>": 21575, "vost</w>": 47315, "\u653e": 52681, "autocollant</w>": 43431, "ovic</w>": 38020, "s.pour</w>": 39354, "prescrits</w>": 25467, "replacer</w>": 28477, "austr": 46922, "d\u00e9mobilisation</w>": 35116, "\u313e</w>": 61711, "p\u00e9nitentiaires</w>": 31757, "\u1f24</w>": 53602, "dans</w>": 33, "nike</w>": 14520, "debussy</w>": 45420, "\u1fe2": 64234, "attirent</w>": 16970, "gen": 2416, "python</w>": 31487, "penche</w>": 15526, "haine</w>": 4842, "r\u00e9duisent</w>": 19307, "soja</w>": 13520, "tha\u00ef</w>": 38552, "trap": 13386, "1,1</w>": 14072, "\u0163": 49438, "\u00c3": 63470, "trousse</w>": 18275, "p\u00e2turage</w>": 39224, "renfor": 20782, "cr\u00eape</w>": 33755, "fring": 37874, "autruche</w>": 44633, "villers</w>": 32238, "enlac": 44438, "\u1d4f": 61512, "basique</w>": 18313, "ro-": 19624, "\u0cab</w>": 63762, "branchement</w>": 22855, "assum\u00e9e</w>": 33223, "vaud</w>": 37096, "localit\u00e9s</w>": 11759, "command\u00e9es</w>": 32889, "\u9594</w>": 62932, "g\u00e9naire</w>": 32086, "ort</w>": 20403, "adh\u00e9sion</w>": 3942, "\u0479</w>": 58816, "judicieuse</w>": 41101, "\u00e9ducative</w>": 15030, "\u9f8d": 51277, "il": 2299, "19,": 9222, "\u5c62": 64850, "differentes</w>": 45635, "para</w>": 20841, "essayer</w>": 2190, "alfon": 40739, "folle</w>": 7621, "atory</w>": 44549, "cantine</w>": 20788, "\u1279": 63858, "nullement</w>": 10393, "d\u00e9sertique</w>": 42939, "lius</w>": 24716, "\u7152</w>": 62336, "ouch</w>": 45261, "\u6cf3": 60463, "verser</w>": 4038, "apocalyptique</w>": 35332, "arc": 20375, "66": 23973, "avia</w>": 25337, "ballade</w>": 18596, "appropri\u00e9</w>": 7697, "dp</w>": 10697, "membran": 44035, "sauce</w>": 4869, "termin\u00e9</w>": 3550, "jupes</w>": 26180, "perfectionner</w>": 21006, "limite</w>": 1761, "varso": 50376, "tory</w>": 29260, "shi": 5871, "estiment</w>": 6073, "pomme</w>": 6858, "agreement</w>": 41700, "budg\u00e9taire</w>": 4330, ".comme</w>": 44558, "\u8906</w>": 66169, "havane</w>": 24432, "gnant</w>": 31441, "saient</w>": 11868, "america</w>": 12804, "\u5219</w>": 64559, "\u517e": 64537, "\u5899</w>": 60203, "\u7406</w>": 52724, "parachutistes</w>": 39494, "\u00e8</w>": 5997, "embus": 46923, "d\u00e9pou": 22345, "leur": 20388, "physiques</w>": 3831, "attentes</w>": 3473, "anderson</w>": 15865, "\u7ee9": 62554, "dote</w>": 23280, "courriers</w>": 17251, "complexit\u00e9</w>": 6270, "avides</w>": 29627, "facti": 38185, "\u7bc6": 56272, "ain\u00e9</w>": 46475, "projet\u00e9</w>": 16978, "223</w>": 33864, "\u771e</w>": 57186, "consensus</w>": 5795, "louis-": 12710, "hez": 48948, "mill\u00e9n": 48814, "pr\u00e9l\u00e8vement</w>": 9292, "tourmente</w>": 24913, "\u58c1": 55527, "\u53d9": 64612, "\u0689</w>": 61244, "director</w>": 37964, "agressions</w>": 10844, "collision</w>": 13570, "\u8efd</w>": 55943, "gouverne</w>": 21799, "\u200d</w>": 64242, "chanoines</w>": 41205, "haute": 39638, "bo\u00eetes</w>": 8192, "environnemental</w>": 11235, "k\u00e9n": 31708, "polluant</w>": 38267, "con\u00e7u</w>": 2844, "\u5915": 55530, "\u211b</w>": 52671, "exc\u00e9dents</w>": 29973, "aleksand": 46692, "dixi\u00e8me</w>": 10677, "co\u00e9quipier</w>": 16307, "\u89c8</w>": 66180, "triomphant</w>": 42955, "prob": 17190, "mixage</w>": 33328, "arde</w>": 12383, "ssez</w>": 40861, "prochains</w>": 4849, "\u1d0c</w>": 64125, "pesticides</w>": 11339, "\u5897": 61920, "\u0276": 52827, "\u3068": 51148, "hum</w>": 21841, "film\u00e9e</w>": 28877, "saint-": 937, "\u1242</w>": 63852, "680</w>": 39068, "phara": 30977, "marqu\u00e9es</w>": 15289, "\u0bb2</w>": 52661, "1966</w>": 9625, "achats</w>": 3362, "signifi": 24110, "d\u00e9terminer</w>": 2091, "\u0105</w>": 49990, "oliviers</w>": 23253, "\u2113": 50794, "acquis</w>": 2900, "\uacf3</w>": 66906, "vosges</w>": 12998, "ots</w>": 8346, "abilit\u00e9</w>": 12052, "enzo</w>": 39135, "faut</w>": 168, "\u53bf</w>": 50032, "\u52c1</w>": 64580, "fixes</w>": 9677, "\u5ca2": 64856, "dynamo</w>": 40718, "\u620c": 64995, "maniabilit\u00e9</w>": 37811, "\u6614": 60379, "\u2924</w>": 56989, "flori": 18942, "chr\u00e9tiennes</w>": 14668, "rellement</w>": 45854, "kab": 13646, "majeur</w>": 3566, "ura</w>": 26615, "\u57a2": 61904, "alites</w>": 29557, "bifur": 32482, "car": 827, "prouv\u00e9e</w>": 36881, "londoniens</w>": 45060, "\u0242": 63502, "reproduits</w>": 39157, "suisse</w>": 1486, "frian": 48227, "tapez</w>": 25071, "montrait</w>": 13682, "alpes-maritimes</w>": 22354, "\u9621": 66552, "ea</w>": 5820, "carol</w>": 31539, "</s>": 1, "directrices</w>": 9491, "l\u00e9gislative</w>": 11307, "atteignent</w>": 12847, "am\u00e9liorations</w>": 7781, "r\u00e9f\u00e9rents</w>": 43837, "sici": 28340, "it": 5797, "gene</w>": 19865, "illi</w>": 31194, "\u965f": 66558, "asserv": 49391, "lavrov</w>": 42959, "jeffrey</w>": 32935, "\u7570": 54344, "arin</w>": 45986, "morts</w>": 1759, "transf\u00e9rer</w>": 7252, "extra": 12303, "fellation</w>": 32187, "\u00e9chelons</w>": 15643, "\u505c": 61768, "alpes</w>": 7262, "\u0a69": 56913, "rencontre</w>": 726, "visa</w>": 7482, "\u8aee</w>": 62758, "possesseurs</w>": 32599, "lacry": 48307, "fta</w>": 43042, "biographiques</w>": 35686, "mouloudia</w>": 46378, "astes</w>": 48306, "prioritaires</w>": 9953, "\u152d": 56953, "bulle": 49861, "ad\u00e8le</w>": 28777, "\u0f67": 63821, "minuit</w>": 8665, "associatives</w>": 39926, "\u5d5c</w>": 64874, "initial</w>": 6331, "veiller</w>": 4981, "\u00e9v\u00e9n": 47730, "at</w>": 1045, "ombre</w>": 3058, "\u8fd1": 52870, "nova</w>": 18038, "ju": 1609, "\u5c97": 54175, "montre</w>": 1148, "file</w>": 5826, "initialement</w>": 5593, "m\u00e1": 33331, "nen": 35719, "\u86d9</w>": 66107, "attestant</w>": 28419, "\u52f0</w>": 60151, "applicabilit\u00e9</w>": 43154, "zi": 2419, "\ub3c8": 63197, "\u1799</w>": 53600, "oz": 18158, "dessous</w>": 3384, "\u739f</w>": 65512, "touchent</w>": 10007, "risme</w>": 12874, "\u78a7": 54507, "press\u00e9e</w>": 27068, "m\u00e9canismes</w>": 3774, "inclusion</w>": 13832, "r\u00e9my</w>": 17888, "900": 44777, "gallimard</w>": 17626, "\u00e9mettre</w>": 11186, "\ud800\udeba": 67335, "verrons</w>": 13191, "altern": 19517, "fuges</w>": 42566, "occulte</w>": 28941, "d\u00e9caiss": 44134, "r\u00e9ponse</w>": 1003, "affol": 29197, "\u00e9chal": 48702, "\u00e9tabli": 28362, "davies</w>": 42491, "r\u00e9servent</w>": 36727, "\ube0c</w>": 58721, "sur-mer</w>": 19175, "pr\u00e9dicateur</w>": 37134, "vertige</w>": 24883, "\u120e</w>": 56938, "\u82fe</w>": 60696, "rall": 47261, "dioc\u00e8se</w>": 9529, "coqu": 19386, "\u067d</w>": 58836, "\u025a</w>": 59763, "body</w>": 18052, "moche</w>": 14601, "\u9cf4</w>": 56809, "\uff4f</w>": 57336, "isin</w>": 48569, "iso</w>": 9330, "nouvelle-cal\u00e9donie</w>": 20012, "kris</w>": 40200, "t-de-": 33279, "laden</w>": 20523, "galettes</w>": 26962, "\u9e4f</w>": 55970, "pkk</w>": 33450, "canni": 29528, "\u5abd</w>": 56582, "\u516a": 64534, "pli</w>": 19539, "tango</w>": 26792, "libyenne</w>": 24258, "prototype</w>": 13881, "hospital</w>": 33488, "roches</w>": 12344, "\u6e5b</w>": 62287, "c\u00e9l\u00e8brent</w>": 38724, "d\u00e9marrent</w>": 46867, "psg</w>": 6523, "vieilli</w>": 27249, "tiraill": 33292, "poignets</w>": 26354, "quasi</w>": 4832, "clon": 32890, "cycles</w>": 9081, "achev": 26998, "lutter</w>": 3236, "bleuets</w>": 46495, "b\u00e9nie</w>": 46320, "\u6e2c": 60488, "repose</w>": 3892, "\u00e9gale</w>": 5217, "\u1d56</w>": 61516, "particule</w>": 23600, "avait</w>": 104, "\u8846</w>": 55927, "droites</w>": 19775, "\u9c81": 53858, "nord-am\u00e9ricaine</w>": 38457, "\u0929": 63649, "prom\u00e8ne</w>": 25716, "fun\u00e9r": 49735, "alt</w>": 29473, "will</w>": 6697, "privatisation</w>": 15087, "\u6deb</w>": 62277, "281</w>": 43138, "antes": 35740, "\u3014</w>": 56122, "\u00e9ry</w>": 49015, "brass": 14547, "\u4f76": 64484, "uc</w>": 28851, "profession</w>": 4265, "ghton</w>": 31047, "monologue</w>": 37735, "cr\u00e9ons</w>": 35990, "chari": 20196, "bagar": 47481, "\u5fb4": 64929, "tsa</w>": 43824, "significativement</w>": 17465, "intendant</w>": 29696, "implantation</w>": 7543, "aliments</w>": 3431, "experts</w>": 1860, "passi": 16469, "benelux</w>": 42664, "\u14a1</w>": 59934, "syndicale</w>": 12194, "tricher</w>": 44214, "\uc838</w>": 67118, "implan": 27641, "henry</w>": 6611, "\u0e58": 63807, "ration": 14536, "buc": 19257, "ng": 18934, "obtenue</w>": 8523, "\u06f3</w>": 57384, "\u1d1d</w>": 64136, "\u92d2</w>": 58622, "\u5629": 64696, "\u3071": 56503, "bds</w>": 39754, "moul": 19542, "\u9808": 53759, "d\u00e9clic</w>": 34251, "ries": 41494, "wall</w>": 7203, "bow": 19833, "d\u00e9construction</w>": 44245, "wwf</w>": 32769, "switch</w>": 25712, "horse</w>": 35302, "r\u00e9\u00e9lu</w>": 15650, "pogba</w>": 41026, "\u62ab</w>": 62079, "tosh</w>": 38182, "engine</w>": 36536, "karit\u00e9</w>": 40537, "\uc27d": 63242, "supposer</w>": 11232, "int\u00e9rieure</w>": 3818, "monte</w>": 4350, "\u86df": 62700, "sauna</w>": 17232, "kara</w>": 27520, "fanta": 25060, "tenant</w>": 4030, "s\u00e9lection</w>": 1667, "balade</w>": 8431, "crew</w>": 40508, "biod\u00e9gra": 31943, "\ufe6a</w>": 63336, "sixi\u00e8me</w>": 4997, "analys\u00e9</w>": 14576, "sus": 11441, "dinde</w>": 30195, "survenue</w>": 12427, "\u932c": 59567, "zzo</w>": 21409, "\uab3a</w>": 66847, "respect</w>": 1308, "dissait</w>": 40209, "lair</w>": 36981, "para\u00eet-il</w>": 30910, "\u122d</w>": 52886, "\u5c01</w>": 57075, "nouvelle-\u00e9cosse</w>": 21034, "praticiens</w>": 14316, "mart": 27644, "\u2784</w>": 54284, "\u00e9li": 9111, "luxembourg</w>": 4366, "existante</w>": 14144, "\u00e9van": 38710, "souvent</w>": 271, "c\u00e8dent</w>": 41168, "charbonneau</w>": 30770, "\ua78c</w>": 55662, "diff\u00e9rente</w>": 3602, "\ua76f": 59631, "brutalement</w>": 15060, "excessive</w>": 11279, "prodiges</w>": 44585, "\ud83d\ude2d</w>": 67531, "assaill": 40489, "osce</w>": 25202, "\u0a05": 54410, "unissent</w>": 24348, "homophobes</w>": 44578, "l\u00e9gions</w>": 30578, "evalu": 36658, "\u00e9lectro</w>": 21662, "lactique</w>": 37312, "animations</w>": 7110, "ozone</w>": 18996, "neuville</w>": 39723, "\u0ba3</w>": 55734, "recherchons</w>": 22025, "\u9806</w>": 53498, "collectivit\u00e9</w>": 6749, "\u8bf4</w>": 57246, "\u994c</w>": 66646, "wen": 17104, "encadrer</w>": 17731, "\u78a9": 58447, "\u30da": 52629, "\u88fe</w>": 66168, "booster</w>": 18801, "\u092f": 50879, "ch\u00e2timents</w>": 40536, ".2</w>": 22058, "manquer</w>": 6389, "\u0bb9</w>": 61342, "\u5883": 57588, "\ucd08": 54558, "bijouterie</w>": 36686, "tement": 24202, "surprenant</w>": 8821, "12,5</w>": 26675, "confidences</w>": 26412, "\u0e0b</w>": 58896, "cypri": 48988, "spaci": 49082, "remplacement</w>": 4613, "facebook": 42724, "slalom</w>": 26563, "harry</w>": 8022, "10h": 28146, "\uc785": 55422, "222</w>": 31098, "\u5477": 64629, "\u7ea2</w>": 55908, "s\u00e9dent": 42984, "\u5728</w>": 53818, "symbol": 14924, "\uab41</w>": 66854, "pourrait-on</w>": 29352, "\u95f8": 62942, "protection</w>": 590, "contents</w>": 17291, "effervescence</w>": 25090, "tiez</w>": 15381, "\u5e9c</w>": 51808, "slova": 44560, "hom\u00e8re</w>": 32054, "tah</w>": 47151, "cyprien</w>": 40667, "tuer</w>": 3191, "t\u00e9l\u00e9spectateurs</w>": 10022, "mobil</w>": 29932, "\u64e6": 65079, "in\u00e9s</w>": 13484, "\u7f72</w>": 55610, "\u627f": 52680, "rev\u00eatus</w>": 43518, "anta</w>": 36789, "\u7537</w>": 52418, "\u1ea1</w>": 51215, "\u0435</w>": 48025, "007</w>": 38071, "devrez</w>": 9812, "cime": 49049, "\u989c</w>": 66633, "\ud835\udc43": 67487, "victori": 14324, "1839</w>": 32913, "organisateur</w>": 11833, "impressionnant</w>": 8938, "indemn": 28052, "\uc78e": 58734, "investigations</w>": 13778, "all\u00e9s</w>": 10838, "hob": 15450, "tristes</w>": 17801, "sten</w>": 24430, "esclavage</w>": 9460, "luis</w>": 12252, "\ud800\udec3</w>": 67341, "constat\u00e9es</w>": 25191, "mata": 25278, "mailles</w>": 19043, "\u4e0b": 51408, "tripad": 50095, "\u0479": 56399, "conti</w>": 28021, "pigeons</w>": 24429, "soleils</w>": 46579, "comprendra</w>": 18466, "\u09a1": 52504, "je": 4160, "hammer</w>": 31914, "kowe\u00eft</w>": 17824, "tu\u00e9es</w>": 13539, "oasis</w>": 20295, "\ub5b4": 57889, "construction</w>": 857, "ravissante</w>": 34882, "\u6d19": 65292, "interminist\u00e9rielle</w>": 39465, "prog\u00e9ni": 48865, "fln</w>": 32011, "\u0434": 47749, "avant-hier</w>": 35564, "\u14c7</w>": 61440, "ecoss": 49645, "\u84cd</w>": 66044, "\u72d9": 65488, "refoulement</w>": 35531, "attendez-vous</w>": 45127, "\u88df": 62730, "ar</w>": 2043, "rieux</w>": 29817, "\u04eb</w>": 59801, "\u7409": 54696, "%</w>": 103, "stew": 48616, "5</w>": 192, "\u5e08": 53466, "commerce</w>": 943, "pathes</w>": 33981, "essaya</w>": 31021, "\u5cb3": 52754, "\ua657</w>": 59626, "honor\u00e9</w>": 14160, "d-": 3309, "\u05d9</w>": 50318, "d\u00e9riv\u00e9s</w>": 7461, "ob": 2529, "\u864e": 52453, "\u574a": 55291, "\u1d15</w>": 64132, "ographique</w>": 14719, "slovaquie</w>": 14517, "dai</w>": 28357, "hal</w>": 21800, "xiv</w>": 10294, "guin</w>": 21463, "supportent</w>": 23008, "dixi": 41964, "\u54cb</w>": 64642, "faut": 48800, "\u0927": 51541, "\u4e1e": 56512, "boitier</w>": 21384, "inondation</w>": 22619, "\u84cb</w>": 55921, "dividende</w>": 21365, "emmen\u00e9s</w>": 31503, "\u99d2</w>": 60911, "avocat</w>": 2455, "aide</w>": 328, "maroquinerie</w>": 42449, "viande</w>": 3071, "\u4f0a": 51612, "etsk</w>": 50527, "mitsub": 50771, "aces</w>": 16365, "hope</w>": 26407, "\u82b8": 53973, "cachait</w>": 25732, "saint-pierre-": 28524, "\ub0a8": 51999, "est-\u00e0-dire</w>": 1441, "at\u00e9es</w>": 46395, "r\u00e9alisateurs</w>": 14542, "gging</w>": 32623, "\u7c98": 65771, "atypique</w>": 14333, "formalit\u00e9s</w>": 14361, "\u0273</w>": 54578, "soulign\u00e9e</w>": 36704, "cot\u00e9es</w>": 26346, "\uab3d</w>": 66850, "atier</w>": 29654, "over</w>": 8530, "\u8fe6</w>": 62841, "\u04a3</w>": 53424, "enqu\u00eateurs</w>": 7412, "\ub791": 52693, "int\u00e9rieures</w>": 10124, "creuse</w>": 12090, "alfred</w>": 12285, "ps-": 28398, "aty": 48428, "\u5cf0</w>": 51851, "chercheuse</w>": 28371, "nor</w>": 18015, "recyclables</w>": 43729, "globe</w>": 8579, "omes</w>": 18606, "publi\u00e9e</w>": 4016, "shadow</w>": 33773, "b\u00e2tisse</w>": 25562, "gagnerait</w>": 41955, "g\u00e9ographe</w>": 40327, "opie</w>": 31032, "temp": 18895, "al\u00e9at": 40851, "d\u00e9pos\u00e9s</w>": 12792, "bleu": 16686, "d\u00e9bits</w>": 21558, "\u03a9": 59781, "283</w>": 42896, "r\u00e9dig\u00e9es</w>": 32663, "sp\u00e9cifier</w>": 29365, "valise</w>": 13487, "usant</w>": 31333, "\u179c</w>": 54811, "dauphine</w>": 28737, "hs</w>": 12086, "\u22bf</w>": 56486, "\u10d3": 50892, "\uab4a</w>": 66863, "discr\u00e9di": 47769, "condamn": 27038, "adressant</w>": 15017, "Y</w>": 50826, "moin": 23467, "dumas</w>": 20117, "robots</w>": 10930, "doyen</w>": 16991, "grandissante</w>": 20682, "\u9853": 58656, "\u6854": 62197, "voyants</w>": 26310, "ographies</w>": 34609, "fa": 3167, "d\u00e9coder</w>": 42134, "pension</w>": 5065, "\u64cd</w>": 54868, "seven</w>": 27566, "magasins</w>": 3810, "jointes</w>": 21971, "ravel</w>": 37841, "\u7fca</w>": 60663, "gel\u00e9</w>": 25874, "entra\u00eenerait</w>": 30810, "luth\u00e9ri": 37536, "flui": 25542, "moulou": 47321, "immenses</w>": 11160, "costumes</w>": 9801, "bourses</w>": 7891, "compromettre</w>": 16453, "\u4e80</w>": 58148, "ps3</w>": 17807, "\u0b37": 63728, "paquebot</w>": 32975, "\u10d5": 50762, "t\u00e9l\u00e9vis\u00e9es</w>": 25785, "combustible</w>": 9345, "tra\u00e7abilit\u00e9</w>": 23515, "azote</w>": 12392, "d\u00e9nu\u00e9</w>": 35108, "activit\u00e9s</w>": 411, "morose</w>": 39530, "syndi": 23056, "couramment</w>": 13814, "fa\u00e7ons</w>": 5830, "multipli": 19801, "vit\u00e9</w>": 14800, "marquer</w>": 5654, "kia</w>": 21615, "frontalier</w>": 37564, "\ud835\udc4a</w>": 63429, "\u1f51": 50123, "ana\u00efs</w>": 35723, "slog": 49581, "pied-": 40854, "dylan</w>": 21595, "\u0153il</w>": 3021, "boulet</w>": 23616, "vrerie</w>": 46636, "aucu": 48455, "hl": 20137, "\u5a41": 57602, "\u5f8c": 51441, "eon</w>": 37374, "dollars</w>": 844, "\u7dcb": 62524, "ib</w>": 40944, "reprise</w>": 2357, "juin</w>": 486, "configur\u00e9e</w>": 39967, "ag": 1122, "ra-t-on</w>": 32681, "b\u00e9ati": 27562, "essai": 16928, "litt\u00e9rature</w>": 2717, "vainqueur</w>": 4673, "versent</w>": 21416, "dr</w>": 2983, "\u6ca1": 54490, "\uc9dd": 63283, "\ud558</w>": 54251, "dos": 41679, "prot\u00e9g\u00e9e</w>": 9657, "\u00aa": 49676, "pil": 6107, "hurler</w>": 25534, "sam": 3646, "conductrice</w>": 19083, "trad": 24413, "\uc81c</w>": 52975, "platon": 44482, "\u582f</w>": 55044, "\ub9c9</w>": 61013, "chouettes</w>": 38295, "\ud835\udd2d</w>": 53251, "bourreaux</w>": 30070, "polaires</w>": 23124, "libr": 33933, "baccal": 49626, "murs</w>": 2974, "deur</w>": 7142, "\u5c45</w>": 53377, "gare</w>": 2606, "lnh</w>": 12244, "sociologue</w>": 18535, "\u51b5": 64549, "\uba74": 59663, "gill</w>": 44375, "\u00efse</w>": 47307, "veillent</w>": 25251, "admettant</w>": 33866, "pollen</w>": 33167, "relaxation</w>": 18487, "profondeurs</w>": 16944, "vladimir</w>": 9909, "jeune</w>": 374, "c\u00e9l\u00e9br\u00e9e</w>": 22836, "g\u00e9o": 9999, "C": 13056, "d\u00e9pendantes</w>": 24587, "violon": 36606, "cin\u00e9": 13459, "\u8299": 59444, "poumons</w>": 16913, "foot</w>": 5622, "\u8c54": 66264, "\u68af</w>": 60416, "\u1235": 52407, "und</w>": 9839, "veuve</w>": 9572, "\u01c6": 54572, "144</w>": 21071, "roman": 15097, "voue</w>": 42158, "\u0ea7</w>": 55474, "44</w>": 2970, "audience</w>": 3936, "encourus</w>": 36558, "privi": 40283, "pec</w>": 23564, "engendre</w>": 14852, "thi": 4301, "\u6060</w>": 64941, "racont\u00e9</w>": 8752, "croix</w>": 3323, "aspirer</w>": 31325, "\u0433</w>": 50299, "aman": 31324, "buffon</w>": 43671, "\u09f3</w>": 55199, "conviennent</w>": 13449, "\u6caa</w>": 65278, "porteurs</w>": 7992, "audible</w>": 32185, "r\u00e9cipient</w>": 10891, "marchan": 42475, "recal": 34225, "fuy": 20419, "sta": 2474, "\uc655</w>": 54954, "mat\u00e9riels</w>": 5899, "\ufb15</w>": 67232, "comprim\u00e9s</w>": 18454, "c\u00e9line</w>": 11062, "janu": 48766, "\u5b5d</w>": 53821, "rigoureuse</w>": 15373, "til": 18533, "\u91c8</w>": 58617, "5,000</w>": 46172, "\ucc30</w>": 67141, "\uc2a8</w>": 59678, "rugby</w>": 5938, "puy-": 47304, "pi\u00e9ger</w>": 33057, "\u7232": 57717, "veland</w>": 50082, "touchant</w>": 7184, "importations</w>": 5789, "sensible</w>": 3498, "13</w>": 637, "fruc": 38999, "\uc0b0</w>": 51968, "\u4f51": 59034, "accompagnement</w>": 4115, "envisagez</w>": 41112, "h\u00e9r\u00e9dit\u00e9</w>": 43723, "m\u00e9n": 13207, "publient</w>": 25443, "front</w>": 1984, "aru</w>": 36188, "collins</w>": 26345, "\ud55c</w>": 52921, "collent</w>": 36052, "\u2463</w>": 52102, "asse": 35700, "\u7960": 65695, "\u1e3f</w>": 53905, "cong\u00e9": 33954, "occidentaux</w>": 6633, "souvient</w>": 8453, "eclairage</w>": 45714, "look": 23786, "pu</w>": 427, "juv\u00e9nile</w>": 27208, "\ud835\udc53</w>": 53770, "think</w>": 22070, "\u9f8d</w>": 51756, "\u9ad3": 66692, "instituteur</w>": 25912, "southampton</w>": 45412, "chemises</w>": 22125, "cui": 26452, "lander</w>": 37519, "\uff52</w>": 56370, "notifications</w>": 24146, "\ua727</w>": 63114, "\u1241": 59907, "\u8c2f": 62777, "rejouer</w>": 35523, "\u6df8": 56665, "porter</w>": 1332, "poil</w>": 8200, "remet</w>": 7471, "\u540e</w>": 52107, "r\u00e9gler</w>": 3814, "recherchez</w>": 15271, "p\u00e8rent</w>": 31022, "l\u00e8vera</w>": 41870, "tablo": 42932, "n\u0153uds</w>": 19103, "\u30cc": 55252, "support</w>": 1765, "porte-": 6539, "\u0686</w>": 56897, "nait</w>": 10837, "philosophique</w>": 10614, "concepteur</w>": 22333, "\ud808\udf37</w>": 67456, "p\u00e9la": 50817, "\u64a4</w>": 62121, "ind\u00e9pendantistes</w>": 27923, "efforts</w>": 1321, "train": 15415, "\u5de2</w>": 55062, "star</w>": 2777, "inconfort</w>": 33561, "clint</w>": 43223, "grave</w>": 2318, "appuy\u00e9s</w>": 26603, "bombardements</w>": 14099, "\u6eab": 55343, "\u8a0e": 57799, "adolescente</w>": 15072, "sa\u00f4ne</w>": 21492, "\u8bae</w>": 62768, "\u16ba": 59948, "zier</w>": 27460, "constitu": 12358, "\u716e": 62341, "ensemble</w>": 242, "kit": 31972, "intercommunale</w>": 23788, "rens</w>": 35738, "d\u00e9voil\u00e9es</w>": 38672, "\u79ed": 65706, "type</w>": 457, "branches</w>": 5728, "passions</w>": 7567, "r\u00e9organiser</w>": 33400, "presti": 47437, "enclins</w>": 32537, "\u00e9gal</w>": 5552, "loi</w>": 290, "\u79f0": 57741, "nager</w>": 18654, "ps4</w>": 22594, "\u7a3c</w>": 65715, "sinu": 19277, "timor-": 49646, "\u0c08": 63744, "sentier</w>": 8408, "\u79d8": 53079, "lance-": 20731, "financier</w>": 2078, "sauveur</w>": 13010, "indiff\u00e9rence</w>": 12543, "\u5d27</w>": 64870, "\ud800\udd47</w>": 67315, "g\u00ean\u00e9e</w>": 43699, "encaisse</w>": 40473, "temperature</w>": 45010, "\u3088</w>": 53363, "christiane</w>": 19705, "yal": 38587, "s\u00e9cession</w>": 25570, "morel</w>": 28378, "mi-chemin</w>": 20521, "chef-": 47630, "tranquillement</w>": 8787, "quadrill": 36850, "pers\u00e9cut\u00e9s</w>": 41152, "amplificateur</w>": 21125, "globules</w>": 31878, "honor\u00e9e</w>": 45879, "\u96b7": 62964, "r\u00e9duite</w>": 5172, "interf\u00e9rences</w>": 34533, "ebo": 14098, "\u601d</w>": 53217, "adjacent</w>": 37692, "\u708e</w>": 54883, "b\u00e9nin</w>": 12993, "lisbonne</w>": 9563, "\u93e2</w>": 66486, "\u5492": 61856, "incontourn": 49575, "bienveill": 39889, "\u7947": 58449, "action": 28918, "camarades</w>": 7004, "puissants</w>": 6843, "automobiles</w>": 8098, "massif</w>": 4930, "\u1548": 63944, "g\u00e9ographie</w>": 8030, "d\u00e9ploi": 35614, "mannequins</w>": 23734, "\uab36</w>": 66843, "\u5a07</w>": 64792, "gregor</w>": 44795, "bent</w>": 15441, "arc-en-ciel</w>": 23911, "bitumineux</w>": 34492, "mov</w>": 37939, "r\u00e9unionnais</w>": 27031, "\u0153": 8252, "government</w>": 15641, "port\u00e9</w>": 2330, "\u5efa</w>": 54061, "allergique</w>": 27176, "cameroun</w>": 8809, "r\u00e9partissent</w>": 36962, "strateg": 37744, "\u7336": 65498, "\uc0bd": 67056, "mies</w>": 23747, "autorisent</w>": 26951, "feuille</w>": 3381, "r\u00e9ducteur</w>": 30163, "appu": 33544, "\u94b0": 59570, "vivante</w>": 8135, "anc\u00e9s</w>": 29572, "glacial</w>": 31355, "13-": 13421, "ajout\u00e9</w>": 1449, "v\u00e9ritablement</w>": 6122, "montr\u00e9es</w>": 43005, "compi\u00e8gne</w>": 32090, "ardennes</w>": 21941, "reich</w>": 17951, "\u0dc0": 54418, "jon</w>": 13930, "\u0293": 52029, "genres</w>": 6325, "\u7344": 56680, "\u81e3</w>": 52391, "rog": 31631, "nivel": 31997, "agir</w>": 2351, "ferm\u00e9e</w>": 6426, "nous-": 48590, "\u308f</w>": 53802, "arr\u00eat</w>": 1733, "\u026d": 54577, "vignerons</w>": 19837, "rami": 19422, "pr\u00e9lev\u00e9</w>": 28900, "\u6656": 65112, "\u155b": 63948, "grille</w>": 5321, "l\u00e9on": 18080, "medic": 48461, "perfectionn": 18686, "cardiff</w>": 40133, "r\u00e9alisations</w>": 6904, "vanessa</w>": 20148, "\u7281": 65481, "\u1784</w>": 52347, "\u5549</w>": 64662, "paysages</w>": 4494, "arcanes</w>": 46362, "colons</w>": 12177, "\ud6a1": 67218, "disputer</w>": 12151, "m\u00e9tier</w>": 2361, "barnes</w>": 46004, "sympathisants</w>": 15052, "opportunistes</w>": 46450, "dilection</w>": 50213, "\u30c7</w>": 57004, "avari": 37780, "\ua651": 63092, "\u021b": 48347, "\u536b": 53459, "viagra</w>": 8448, "gilets</w>": 20941, "raisonnables</w>": 12613, "vach": 36884, "\uc6b1": 63256, "organisons</w>": 40100, "borough</w>": 30108, "tapas</w>": 38060, "cadeau</w>": 3593, "inju": 24577, "vier</w>": 14945, "\u203f</w>": 50842, "\u0131": 34525, "sombrer</w>": 24342, "\ua77c</w>": 60956, "\u84bf": 60717, "coagulation</w>": 43821, "60": 8911, "troupeaux</w>": 19628, "fayard</w>": 38316, "disposait</w>": 15866, "canalisations</w>": 24084, "maxi</w>": 16359, "\u6b77": 55087, "centre</w>": 332, "\u8b19</w>": 57240, "57": 20516, "vigoureusement</w>": 24357, "ebitda</w>": 43217, "discussions</w>": 3276, "\u513a": 61779, "cuma</w>": 49279, "antaine</w>": 50687, "retrouv\u00e9e</w>": 9781, "biblioth\u00e9caires</w>": 42723, "atteinte</w>": 3901, "s\u00e9": 1930, "\u83b2": 55376, "1.3.": 10108, "agneau</w>": 15699, "\u59e5": 56576, "hauss": 15615, "interrogation</w>": 10286, "handica": 44097, "tarification</w>": 18262, "drop": 33187, "\u16ee": 64033, "corde": 42174, "brasse</w>": 40943, "mari\u00e9s</w>": 12676, "doudou": 43058, "\u5df7": 60276, "amu": 13595, "otti</w>": 23046, "352</w>": 41217, "d\u00e9buts</w>": 5006, "modernit\u00e9</w>": 9005, "condamn\u00e9</w>": 3491, "postulat</w>": 32391, "soigneusement</w>": 7624, "\u6eda": 65358, "\u2d1e": 64388, "\u6789</w>": 65139, "2006</w>": 1042, "minutie</w>": 39842, "tableaux</w>": 4148, "\u519c</w>": 61790, "acad\u00e9mi": 29150, "convalescence</w>": 32735, "\u6bcd": 52857, "\ub0a0": 59647, "coraux</w>": 37432, "t\u00e9l\u00e9communication</w>": 24810, "prison</w>": 1820, "the": 6273, "ajout\u00e9es</w>": 14978, "v\u00e9g\u00e9tales</w>": 12756, "m\u00e9tropoles</w>": 23140, "nic</w>": 19396, "between</w>": 25291, "destro": 30282, "\u092a": 50681, "recourir</w>": 8789, "nouvelle-guin\u00e9e</w>": 35352, "orme</w>": 26696, "eur-": 10599, "d\u00e9velopp\u00e9es</w>": 11440, "inf\u00e9rieure</w>": 3713, "heures.": 44346, "compar\u00e9e</w>": 16537, "nt1</w>": 45066, "r\u00e9vis\u00e9</w>": 15944, "citr": 26710, "diz": 33837, "s\u00e9rieux</w>": 2722, "imitant</w>": 39394, "business</w>": 4370, "\u0daf</w>": 56067, "ines</w>": 2446, "lyn</w>": 44073, "\u00e9pau": 47166, "163</w>": 26237, "subordination</w>": 34809, "comportemen": 48335, "policier</w>": 5742, "dats</w>": 48825, "\u3063": 51486, "universelle</w>": 5974, "\u0b33</w>": 58014, "isma": 38048, "dimensionnement</w>": 41037, "tania</w>": 39554, "\u9102</w>": 66425, "\ubed0</w>": 67045, "brancher</w>": 17615, "\u1d11</w>": 64129, "\u73b2": 59334, "\u822a</w>": 55370, "craig</w>": 24254, "\u3158</w>": 59013, "costume</w>": 7596, "\u65a4</w>": 56628, "pr\u00e9cis</w>": 2855, "\u2299</w>": 51519, "\ud802\udd0f": 67428, "prospecti": 30099, "tig": 35977, "kees</w>": 49294, "\u4e13": 55254, "thunder</w>": 39929, "de.les</w>": 49233, "\u7680</w>": 65611, "bataill": 29864, "oivent</w>": 36224, "\u51c0</w>": 55809, "\u9824</w>": 59601, "pp.": 45257, "\u51f6</w>": 58185, "valut</w>": 38233, "attack</w>": 32173, "aoc</w>": 19640, "jack</w>": 5412, "trand</w>": 44381, "\u1285": 63861, "montr\u00e9alaise</w>": 25420, "seaux</w>": 23194, "third</w>": 30054, "\u05d3": 50290, "torride</w>": 39131, "cat\u00e9": 20133, "mieux-": 40968, "coll\u00e9gi": 25289, "categori": 48082, "ond</w>": 27395, "attentivement</w>": 12022, "p\u00e9pites</w>": 23790, "honda</w>": 16705, "bis</w>": 6127, "ro\u00ef": 26258, "rr": 21029, "\u5be8</w>": 55056, "r\u00e9glementations</w>": 14133, "vieil</w>": 10217, "couteau</w>": 6319, "positifs</w>": 7160, "triom": 50126, "\u55e8</w>": 64688, "jupp\u00e9</w>": 11656, "\u1e93</w>": 51530, "\u8b5a</w>": 66219, "curiosit\u00e9</w>": 7018, "d\u00eeners</w>": 32246, "applaudir</w>": 31072, "r\u00e9volutionn\u00e9</w>": 46418, "\u1eeb</w>": 52193, "exemple</w>": 273, "s\u00fb": 28567, "\u6d66</w>": 53632, "kitsch</w>": 41586, "benz</w>": 48262, "prostitu": 29498, "\u10da": 50517, "obtienne</w>": 41480, "onienne</w>": 31151, "durcissement</w>": 24499, "luther</w>": 24255, "inclin\u00e9e</w>": 29506, "jouant</w>": 7067, "chevr": 46999, "\u30d1</w>": 58998, "consultant</w>": 9388, "\u1828": 56465, "r\u00e9gie</w>": 9955, "arbor\u00e9</w>": 23677, "rateur</w>": 11024, "r\u00e9pondait</w>": 16893, "charters</w>": 40393, "leu": 9466, "\u99ac": 51180, "glyc\u00e9mie</w>": 25955, "meurent</w>": 13855, "prod</w>": 30946, "lex</w>": 22574, "\u7389": 51164, "\u02cc": 51624, "scolaire</w>": 2397, "gabrielle</w>": 24123, "plastiques</w>": 8917, "h\u00e4": 38947, "asu": 40384, "291</w>": 45100, "changeant</w>": 16967, "d\u00e9mographie</w>": 24309, "r\u00e9compenser</w>": 20219, "arch</w>": 47303, "tarif": 48323, "serie</w>": 12187, "infirmi\u00e8re</w>": 12144, "\u2af8</w>": 58984, "segmentation</w>": 34774, "128</w>": 14877, "\u1e8b</w>": 51899, "l\u00e9o": 22470, "r\u00e9form\u00e9e</w>": 43448, "gg": 15807, "\ua78c": 53096, "lorsqu</w>": 9168, "\uae34": 66914, "\u67fe": 65154, "mante</w>": 26014, "\u027a</w>": 56882, "renier</w>": 30551, "devine</w>": 18518, "\u00e9tamine</w>": 44466, "1992-": 44654, "\u51c6": 57553, "univers": 23119, "></w>": 1014, "\u513c</w>": 59048, "paroisses</w>": 17761, "concentrant</w>": 30784, "tram</w>": 17373, "\u16dd": 64021, "\u7ed9</w>": 65837, "tre": 4515, "\uc2b5": 52535, "\u7cb2</w>": 60629, "afici": 50054, "edison</w>": 45845, "b\u00e9n\u00e9": 25814, "r\u00e9jouir</w>": 17611, "vitesses</w>": 8504, "\u6efe</w>": 65363, "foulard</w>": 23309, "r\u00e9coltes</w>": 17303, "\u9f9f": 63079, "instantan\u00e9</w>": 26044, "18": 5362, "phos": 34944, "ney</w>": 9030, "laissez-vous</w>": 19808, "mingham</w>": 50306, "ji": 5376, "\u756b</w>": 57180, "bocaux</w>": 43583, "succession</w>": 5872, "\u565c": 64703, "\u2177": 52626, "\u969b</w>": 57859, "\u3087</w>": 57001, "juve</w>": 40636, "oir</w>": 6429, "\u5650</w>": 64702, "canonique</w>": 34886, "fraiches</w>": 34528, "fuient</w>": 29016, "na\u00efvement</w>": 41965, "\u3093</w>": 51220, "cassonade</w>": 46565, "wilfried</w>": 39930, "disputent</w>": 24547, "rajoute</w>": 18790, "belie": 36878, "envahi</w>": 17614, "mike</w>": 8617, "\u1f52</w>": 64217, "chandelle</w>": 31601, "reconversion</w>": 19223, "\u06a8</w>": 61252, "pouvons-nous</w>": 30748, "num\u00e9rique</w>": 1748, "\u770c": 53961, "solid": 16719, "lib\u00e9ri": 46284, "insouci": 35951, "sentez</w>": 20022, "avo": 18280, "\u88dc": 55929, "recevrez</w>": 4778, "\u0432</w>": 49584, "citement</w>": 47413, "t\u00e9l\u00e9vis\u00e9s</w>": 30177, "alcal": 23367, "d\u00e9vastateurs</w>": 44398, "gmes</w>": 44430, "veaux</w>": 22421, "1.1.": 44489, "projette</w>": 19732, "\u0b87</w>": 61340, "kiosque</w>": 24078, "m\u00e9morandum</w>": 23610, "\ud835\udc8c</w>": 67507, "\u4ea5</w>": 58150, "m\u00e9lanco": 43916, "mazarin</w>": 41912, "\u00e9tudiant</w>": 4075, "\u09a7</w>": 58861, "habituel</w>": 10472, "so-": 45006, "lom": 13710, "ological</w>": 43605, "corro": 32826, "a\u00eetre</w>": 43750, "him": 14811, "analy": 9784, "\u6642</w>": 53305, "\u01bf": 55694, "glas</w>": 28187, "allin</w>": 49167, "bellion</w>": 47900, "750</w>": 10732, "recrudescence</w>": 33447, "d\u00e9roulement</w>": 7638, "tent\u00e9</w>": 3729, "attrayant</w>": 29124, "r\u00e9unions</w>": 3561, "\u7533": 53482, "2.3</w>": 20229, "justice</w>": 805, "poigne</w>": 44493, "stat</w>": 32144, "\u6dc0": 59297, "adverse</w>": 13925, "vraisemblance</w>": 29437, "model</w>": 17806, "\u2ca3</w>": 61669, "trange</w>": 28632, "refusant</w>": 11646, "\u00e9quilib": 31699, "\u2ca9": 56494, "majors</w>": 26460, "trez</w>": 22380, "\u81b3</w>": 62616, "\u5510": 51395, "conversation</w>": 5629, "\u78a3": 65672, "inton": 41318, "g\u00e9n\u00e9ralisation</w>": 17544, "points</w>": 445, "55-": 45059, "efforce</w>": 14114, "\u9555": 66517, "\u04e1</w>": 61206, "bout</w>": 970, "causa</w>": 37626, "h\u00e9berge</w>": 28957, "\u50ac</w>": 60113, "plain</w>": 34721, "\u7085</w>": 65418, "\u0183": 55437, "\uc77d": 55997, "sements</w>": 26065, "mapp": 31276, "\u72ec": 54077, "caber": 48053, "zman</w>": 45343, "\u2038</w>": 64249, "cat\u00e9g": 29570, "\u50cf</w>": 54644, "\ub2a5": 59650, "corrige</w>": 25920, "army</w>": 27095, "oscille</w>": 28387, "201</w>": 24932, "tap</w>": 37345, "transistor</w>": 28545, "trouverai</w>": 45313, "\uc874</w>": 67119, "wikin": 50700, "\u0d15": 51973, "carit": 48971, "\u917f</w>": 62886, "\u2d31</w>": 56119, "domestiques</w>": 8517, "xe</w>": 11530, "\u00e9lectrol": 50940, "\u22a4</w>": 54819, "al\u00e9as</w>": 19646, "distributeur</w>": 9240, "pivo": 16873, "bla": 41853, "inexistante</w>": 33363, "lade</w>": 32870, "arch\u00e9": 46938, "simp\u00f4ts</w>": 53039, "accompagn\u00e9s</w>": 8345, "\u6cd5": 50981, "\u1d92</w>": 64182, "corporate</w>": 29296, "r\u00e9alisait</w>": 46034, "restez</w>": 15922, "syst\u00e9mati": 38453, "vass": 28113, "\ud68c</w>": 53035, "rhinoc\u00e9ros</w>": 36547, "dissidence</w>": 44114, "s\u00e9par\u00e9e</w>": 11190, "chlore</w>": 22184, ".elle</w>": 31003, "rani</w>": 36528, "d\u00e9vastateur</w>": 36260, "aggrav\u00e9</w>": 28787, "accroch\u00e9e</w>": 34582, "\ub4dd": 66963, "abbatiale</w>": 42209, "agas": 47666, "pistes</w>": 3700, "\u5f6c": 60297, "cements</w>": 22301, "municipale</w>": 7015, "\u30c1</w>": 52783, "verra</w>": 5346, "ds</w>": 2168, "\u554a</w>": 61866, "th\u00e9ri": 43978, "expriment</w>": 11915, "\u7678": 60567, "geables</w>": 40304, "chevrolet</w>": 35578, "onn\u00e9es</w>": 13739, "ur</w>": 8962, "coffrets</w>": 28982, "manche</w>": 4447, "\u04ad": 61197, "c\u00e2bles</w>": 10087, "temporel</w>": 20024, "\u8fbe</w>": 54227, "arium</w>": 22968, "zen": 9354, "polo</w>": 17804, "\u9759": 53326, "\u1ef9</w>": 50578, "chagr": 49212, "rencontrait</w>": 37705, "\u9e75": 60936, "\u5019</w>": 55263, "restau": 12696, "urinaires</w>": 40076, "communautaires</w>": 4063, "lob": 30574, "r\u00e9f\u00e9rant</w>": 26401, "\u7ba1": 53743, "suppl\u00e9": 28004, "reunion</w>": 39322, "\uccb8</w>": 67149, "citadins</w>": 31497, "\uc785</w>": 63262, "froids</w>": 19515, "coup\u00e9</w>": 6830, "\u00e9voqu\u00e9es</w>": 22062, "orit\u00e9s</w>": 41709, "release</w>": 36968, "oxx</w>": 50006, "r\u00e9d": 32559, "caract\u00e9riser</w>": 22124, "imp\u00e9riale</w>": 11454, "\u6b7c": 57687, "islamisme</w>": 25061, "tos</w>": 7961, "sortait</w>": 14960, "danielle</w>": 23603, "passibles</w>": 37504, "cognac</w>": 23486, "\u7f82": 65873, "nord-sud</w>": 28915, "syl": 15704, "marchands</w>": 8077, "khal": 32037, "powi": 50113, "taise</w>": 28516, "plain": 21933, "fil</w>": 1073, "fourmill": 43576, "\u0371</w>": 61170, "blon": 15744, "combles</w>": 29655, "taiwan</w>": 30274, "katy</w>": 43069, "f\u00e9d\u00e9rer</w>": 27931, "m\u00e9tallur": 35709, "an</w>": 238, "civi": 10580, "\uc6c3": 63257, "statuette</w>": 42376, "con</w>": 4858, "cker": 48919, "pr\u00eateur</w>": 34689, "th\u00e9\u00e2trales</w>": 37109, "24-": 19993, "cyclique</w>": 18664, "\u132b": 63892, "temporalit\u00e9</w>": 39863, "\u2a09</w>": 58983, "pra": 32038, "ge-": 12720, "\u7b1b": 60613, "\u6302": 65031, "\u6743</w>": 57126, "\uacac</w>": 59642, "andet</w>": 49305, "actrice</w>": 4919, "cap": 4850, "m\u00e9nard</w>": 29224, "vichy</w>": 16474, "hohen": 44814, "\u8556": 66067, "vauban</w>": 34617, "v\u00e9rifications</w>": 15963, "r\u00e9gulateurs</w>": 30466, "\u6f5c": 58404, "tent</w>": 1707, "\u95a6</w>": 66523, "justific": 49011, "1984</w>": 4976, "\u10e8</w>": 63833, "\u00e9clairc": 47809, "d\u00e9gag": 22155, "infes": 31572, "incertaines</w>": 46823, "\u7422": 62381, "sole</w>": 32647, "cr": 3004, "Q</w>": 51726, "\ua729</w>": 60952, "mc</w>": 6934, "\u5703": 64715, "\u1200</w>": 56437, "\u6325": 65036, "\u9080": 66392, "seu": 11829, "\u7576": 54504, "pie</w>": 7720, "polyvalence</w>": 26499, "d\u00e9j": 25837, "\u68af": 60417, "\u978d</w>": 62976, "rdc</w>": 10723, "biscuits</w>": 12571, "\ub534</w>": 66971, "ternes</w>": 25485, "\u5a1b": 64795, "caract\u00e9ris": 30981, "\u00e9tendant</w>": 13022, "respirant</w>": 43072, "won</w>": 34086, "lards</w>": 39981, "\uab70</w>": 63156, "produisons</w>": 45134, "\u51c9</w>": 57032, "centriste</w>": 25058, "encl": 37577, "historiographie</w>": 40577, "bassins</w>": 11591, "\u8616</w>": 62691, "fers</w>": 23554, "fid\u00e8lement</w>": 23348, "unir</w>": 14121, "\u0288": 52079, "\u6676</w>": 55569, "\u1d56": 61517, "\u2071": 52708, "personnalisable</w>": 36033, "similaire</w>": 5158, "\u77ad</w>": 65642, "dictions</w>": 44616, "francis</w>": 7845, "\ub7c9": 55980, "gouverner</w>": 15191, "hi-": 42647, "\u5c18</w>": 64843, "\u5cf6": 51425, "kim": 11734, "ondul": 20298, "print</w>": 21808, "\u7490</w>": 65556, "salari\u00e9e</w>": 30598, "abe</w>": 16737, "matuidi</w>": 40485, "25,": 14670, "hi</w>": 6400, "figues</w>": 31327, "piloter</w>": 17759, "br\u00e8ve</w>": 10828, "tom</w>": 5231, "bascul": 31230, "\u4e54</w>": 61728, "quelon</w>": 44516, "suicider</w>": 30262, "\ub959</w>": 66996, "~</w>": 7099, "dramatique</w>": 7173, "engren": 49608, "parta": 12607, "\u8c8a</w>": 66268, "lith": 20797, "\u00f1o</w>": 30071, "\ud802\udd13": 63404, "tj": 38740, "\ubd88</w>": 58720, "mutilations</w>": 45424, "\u6689</w>": 60389, "d\u00e9savou": 34428, "optimis": 15550, "denr\u00e9es</w>": 11538, "\u52de": 60150, "alex</w>": 7754, "soumission</w>": 9819, "soyons</w>": 10361, "\u6148": 52854, "parcelles</w>": 14058, "trail</w>": 18710, "\u53e4": 51079, "thess": 48191, "estime</w>": 1500, "\u1f45</w>": 53193, "gastronom": 48123, "collante</w>": 39804, "d\u00e9sagr\u00e9able</w>": 14644, "am\u00e9ricain</w>": 965, "d\u00e9crypter</w>": 30129, "ambre</w>": 27808, "hydroly": 37018, "\uc5d8": 56849, "kata</w>": 44705, "arc</w>": 5199, "chateau": 42658, "chimique</w>": 5375, "raconte</w>": 2811, "scrupules</w>": 30201, "ologistes</w>": 40905, "\u0b1f": 63724, "actu</w>": 15528, "\u5d06": 60266, "tex": 8953, "h</w>": 345, "calibre</w>": 13909, "manches</w>": 7104, "raccour": 28213, "\u0920": 53432, "inquisition</w>": 33031, "wallace</w>": 35983, "g\u00e9r\u00e9e</w>": 16392, "olaf</w>": 39815, "m\u00e9canicien</w>": 27579, "d\u00e9cid\u00e8rent</w>": 34820, "legrand</w>": 28807, "aviaire</w>": 32716, "100g</w>": 38208, "donn\u00e9": 39333, "chasser</w>": 10570, "castres</w>": 29698, "\ua822": 66830, "combat</w>": 1569, "actuels</w>": 5255, "gesti": 24807, "sanglots</w>": 37037, "61</w>": 4078, "avide</w>": 27036, "galop</w>": 26004, "bh": 37032, "cons\u00e9quences</w>": 1902, "\u8389": 54714, "parfaites</w>": 18442, "disjon": 36405, "abo</w>": 28030, "s\u00e3o</w>": 25052, "\u946b</w>": 60862, "apaiser</w>": 15738, "etape</w>": 23997, "\u307b": 52748, "diront</w>": 16320, "cei</w>": 25638, "\u00e9ph": 46246, "arri\u00e8re-plan</w>": 19820, "\u0977</w>": 63667, "napp": 34469, "soudage</w>": 29661, "\u1e1d</w>": 61536, "leuse</w>": 27821, "aisons</w>": 19761, "\u01dd": 51051, "ato": 17208, "\u521d": 52792, "\u8b83</w>": 57807, "acoly": 47207, "introduc": 44929, "statement</w>": 32956, "thon</w>": 15648, "\u12db": 58915, "\u840d": 66027, "bascule</w>": 17197, "\ubbf8</w>": 53100, "armes</w>": 1209, "evil</w>": 32463, "runner</w>": 39718, "convi\u00e9</w>": 34901, "\u4e4b</w>": 51611, "\u660a</w>": 57118, "m\u00e9trique</w>": 22399, "\u8f66": 52969, "pieux</w>": 18467, "\u17a5": 58944, "filtration</w>": 18919, "onnante</w>": 23477, "1835</w>": 33309, "enchant\u00e9e</w>": 33856, "ambitieuse</w>": 20185, "\u00e9tamines</w>": 43795, "\u677c</w>": 62183, "cong\u00e9n": 50768, "r\u00e9tablissement</w>": 9863, "compl\u00e9ter</w>": 4722, "\u90aa": 55634, "ri</w>": 3225, "renaud-bray</w>": 45996, "abominable</w>": 35736, "caract\u00e9rise</w>": 7986, "aptitude</w>": 10039, "rectorat</w>": 31559, "incitant</w>": 29730, "\u8655</w>": 57790, "cpu</w>": 33070, "aies</w>": 14276, "rest\u00e9es</w>": 17903, "\u642c": 65065, "louer</w>": 5771, "oslo</w>": 22734, "\u56b4": 53293, "diff\u00e9renciation</w>": 19872, "abuser</w>": 23003, "\u6f2a</w>": 65366, "\u9244": 52643, "\ubcb3</w>": 61024, "chris</w>": 7824, "douani\u00e8res</w>": 23149, "cl\u00f4t</w>": 35621, "seigne</w>": 49634, "\u7011</w>": 65402, "h\u00e9rit\u00e9e</w>": 41899, "cr\u00e9es</w>": 40733, "\u5716": 53616, "\u868a": 66099, "datation</w>": 37132, "03.": 15370, "claude</w>": 3348, "\u5b8f": 53715, "coffret</w>": 11506, "opul": 28581, "pitts": 49627, "reni": 19697, "laitier</w>": 36464, "invers\u00e9e</w>": 29681, "charm\u00e9</w>": 42789, "\u5475": 64628, "\u99ff": 56333, "decembre</w>": 40228, "habit</w>": 16445, "log\u00e9</w>": 25311, "arrivent</w>": 4479, "\u14d6": 63936, "\u00e9limin\u00e9es</w>": 41788, "\u923a</w>": 60851, "coderre</w>": 32385, "\u00e9quip\u00e9s</w>": 8392, "\u769c</w>": 65617, "\u1e67</w>": 57469, "\u01bb</w>": 61144, "\u639b": 56205, "\u0173</w>": 50409, "18.": 16291, "reprises</w>": 2499, "activement</w>": 6600, "et-labrador</w>": 50653, "montesquieu</w>": 38184, "jou</w>": 20023, "vinci</w>": 16333, "ph\u00e9nom\u00e9nal</w>": 46120, "risquer</w>": 13572, "\u091e</w>": 55197, "corneille</w>": 24523, "quiez</w>": 47840, "es.</w>": 11171, "partag\u00e9e</w>": 8562, "muets</w>": 35600, "isa</w>": 12894, "sanglantes</w>": 37870, "\u9644": 55643, "\u00e9lectrification</w>": 40670, "\u6c92</w>": 62252, "\u0643": 50229, "\u5ac1": 61953, "blin": 19153, "\u1d1e</w>": 64137, "blaise</w>": 20063, "gares</w>": 13557, "thiques</w>": 38513, "abore</w>": 50230, "crier</w>": 10718, "\u7684</w>": 52362, "\u0986</w>": 59839, "remarquables</w>": 10392, "distinctement</w>": 32854, "pl</w>": 12339, "ango": 16210, "egalit\u00e9</w>": 41342, "g\u00fce</w>": 46747, "\u91f5</w>": 62895, "compatibilit\u00e9</w>": 12143, "asseur</w>": 45181, "perquisi": 47091, "d\u00e9l\u00e9gu\u00e9s</w>": 8503, "e-de-": 37115, "\u00e9con": 45038, "conditionn\u00e9</w>": 21295, "percut\u00e9</w>": 30563, "volets</w>": 9511, "bises</w>": 41140, "\u5434</w>": 64620, "sec": 7332, "lib\u00e9rer</w>": 6176, "lydia</w>": 41336, "pinceaux</w>": 27072, "igor</w>": 31954, "schengen</w>": 22417, "spinoza</w>": 45682, "pr\u00eatent</w>": 20908, "apprentiss": 48746, "\u7e01": 58486, "gy": 8601, "intimid": 43902, "292</w>": 45145, "\u00f4te</w>": 33609, "perrault</w>": 45963, "r\u00e9fugier</w>": 21173, "lefe": 47734, "partages</w>": 27989, "all\u00e9g\u00e9</w>": 44478, "inage</w>": 16543, "\u738b": 50563, "ind\u00e9pend": 23855, "raient</w>": 3635, "\u7f9e</w>": 65875, "galement</w>": 37632, "magnifiques</w>": 5956, "hull</w>": 36268, "\ud802\udd15</w>": 63405, "\u6cdb</w>": 65283, "cet": 23821, "\u1e21</w>": 54613, "pr\u00e9cise-t-il</w>": 30246, "incorporant</w>": 38536, "<s>": 0, "medicam": 48691, "invocation</w>": 35640, "lift</w>": 46516, "agglom\u00e9rations</w>": 21606, "r\u00e9cidi": 32224, "\u5742": 52958, "meubl": 28159, "\u81da</w>": 65950, "arabie</w>": 7090, "s\u00e9rieusement</w>": 5783, "crom": 25253, "\u0a38</w>": 54595, "\u044f": 49765, "achim</w>": 49794, "t\u00e9tra": 27771, "\u9088": 66397, "aplati": 27355, "fumi": 37992, "iii.": 28434, "d\u00e9cap": 45287, "somptueux</w>": 18615, "edwards</w>": 33572, "\u78b0": 57734, "saisir</w>": 4003, "guyane</w>": 14551, "emen</w>": 30583, "\u30e0": 51628, "\u54f2</w>": 54850, "assassin</w>": 14956, "copique</w>": 17585, "bles</w>": 5985, "conclues</w>": 41128, "ister</w>": 18110, "100</w>": 649, "keller</w>": 33984, "jusqu'</w>": 163, "red\u00e9coupage</w>": 41844, "\u203e</w>": 54619, "familial</w>": 5335, "kuro": 44903, "mab": 30517, "\u4f36</w>": 61748, "westminster</w>": 38113, "oppos": 19263, "accus\u00e9e</w>": 16573, "coulisses</w>": 12164, "sov</w>": 38153, "superi": 41754, "urb": 36749, "s-le-": 47288, "vey": 31019, "crtc</w>": 36712, "nationalisme</w>": 17845, "unions</w>": 26103, "toires</w>": 13712, "\u542f</w>": 59078, "incorpor\u00e9e</w>": 36580, "introduisent</w>": 42264, "\u7816</w>": 65653, "opprim\u00e9s</w>": 40024, "acca</w>": 39997, "\u4e5a</w>": 64456, "\u1789</w>": 56464, "\u0e0a": 50996, "recueillie</w>": 34568, "ch\u00e8rent</w>": 33716, "\u83d6": 58515, "\u1f13": 52888, "panoramique</w>": 10693, "anecdotique</w>": 30978, "\u1d24</w>": 64143, "stimulus</w>": 43547, "pourparlers</w>": 15461, "ver": 1038, "naufra": 29918, "automatique": 49988, "\u0699": 61251, "dor\u00e9es</w>": 25136, "rouge</w>": 1033, "\u02b3": 55703, "saf</w>": 46555, "compagn": 39960, "d\u00e9sem": 29770, "estomac</w>": 11729, "diffusent</w>": 30856, "\u6713</w>": 62176, "philie</w>": 35190, "\u00f0": 46916, "\u4e36": 61722, "pelouse</w>": 10896, "onirique</w>": 36457, "titi</w>": 44715, "d\u00e9di\u00e9e</w>": 5682, "\u246a</w>": 61608, "tonn\u00e9</w>": 36655, "tariat</w>": 42189, "condamnations</w>": 20331, "kien</w>": 49213, "rat\u00e9</w>": 9550, "commen\u00e7aient</w>": 26770, "\u9688": 66561, "v\u00e9n\u00e9zu\u00e9li": 38144, "\uc744</w>": 52695, "dable</w>": 18923, "1937</w>": 14183, "gation</w>": 20160, "constructions</w>": 7513, "concom": 47081, "253</w>": 34534, "fille</w>": 705, "vaudra</w>": 26288, "tramways</w>": 40680, "alan</w>": 14326, "p.l</w>": 27981, "\uc7ac": 53245, "pole</w>": 11372, "\u604b": 54676, "repr\u00e9sentaient</w>": 17269, "d\u00e9conseill\u00e9</w>": 33320, "\u6247</w>": 57102, "\u3137</w>": 57007, "suivre</w>": 1116, "claqu\u00e9</w>": 45457, "vraisemblablement</w>": 9333, "science</w>": 2311, "modules</w>": 7825, "\u02c0": 51972, "\u5609</w>": 53924, "\u00e9pingle</w>": 19006, "\u134a": 56948, "\u5f39": 58287, "\u0679</w>": 53045, "\u00f4t\u00e9</w>": 36017, "vid\u00e9": 14369, "montaient</w>": 44989, "sal\u00e9s</w>": 28627, "douche</w>": 3578, "\u5dfe</w>": 59153, "\u7ee3</w>": 65842, "retouche</w>": 30552, "or</w>": 410, "psychopathe</w>": 42817, "\u30ea</w>": 52843, "\u0393</w>": 61175, "onniers</w>": 39663, "si\u00e8gent</w>": 32353, "gonflement</w>": 36393, "allou\u00e9es</w>": 33994, "fran": 4514, "\u9501": 66511, "duel</w>": 8076, "tayyip</w>": 34888, "\u0125": 51110, "trouverons</w>": 45517, "proclamer</w>": 27058, "sang-froid</w>": 26129, "d\u00e9taill\u00e9</w>": 9148, "questi": 12058, "\u8d8b</w>": 66307, "s\u00e9lestat</w>": 27496, "\ub09c</w>": 58698, "\u9742": 59597, "taf</w>": 44987, "vrai": 22228, "\u0d0e</w>": 61357, "attirait</w>": 42074, "mug</w>": 46777, "num\u00e9ris": 21668, "co\u00fbtent</w>": 21669, "odo": 19469, "\u9063</w>": 57836, "d\u00e9pressions</w>": 45271, "\u0d25</w>": 61359, "mensurations</w>": 43130, "convergence</w>": 10639, "pr\u00e9jug\u00e9</w>": 35563, "env</w>": 41548, "motivation</w>": 6164, "\u90fd</w>": 52454, "fascine</w>": 33703, "8.1</w>": 32472, "constatons</w>": 25586, "\u00e3o</w>": 17584, "analys\u00e9s</w>": 23451, "anodine</w>": 46711, "allocation</w>": 7766, "philosophes</w>": 13324, "lax": 30285, "refu": 9725, "calami": 30605, "\u6839": 53472, "envoy\u00e9e</w>": 10109, "\u672a</w>": 57672, "\u00cb": 56877, "accueillait</w>": 33046, "autoris\u00e9es</w>": 13333, "fa\u00e7onner</w>": 25527, "eux": 10927, "thing</w>": 21648, "d\u00e9sar": 17379, "agressive</w>": 20246, "\u748b": 65555, "xit</w>": 47607, "\u9c2f</w>": 66716, "pyjama</w>": 34028, "\u60a0": 56198, "sson</w>": 7985, "cro</w>": 34506, "percep": 26286, "sinistr\u00e9s</w>": 32290, "aveu": 48512, "\u278b</w>": 50851, "ny": 7152, "vel</w>": 13500, "pr\u00e9ambule</w>": 14373, "\u5112": 55032, "publier</w>": 5036, "\uc9f1</w>": 63284, "\uc465</w>": 67080, "plais": 47113, "530</w>": 34543, "agac": 21820, "harper</w>": 10679, "\u74dc</w>": 55352, "\u6dc4": 58392, "\u75f4": 60564, "pleine</w>": 1496, "courante</w>": 7664, "\u5ce0": 60262, "philadelphie</w>": 17415, "hidalgo</w>": 26648, "poussent</w>": 10212, "\u958f</w>": 60872, "tem": 4226, "\u5229</w>": 52557, "fait</w>": 77, "\u14f4": 55225, "sionistes</w>": 27626, "mr</w>": 5012, "catalane</w>": 31499, "\u4f86</w>": 53806, "aaa</w>": 24994, "\u66c6</w>": 56211, "\u00e9conomiser</w>": 7050, "\u14c7": 54027, "metteurs</w>": 34544, "proposait</w>": 13913, "\ud30d</w>": 67197, "stone</w>": 9859, "stm</w>": 45514, "an\u00e9anti</w>": 43070, "\uc564": 63248, "ramme</w>": 47846, "abusives</w>": 41670, "\ua641</w>": 60945, "cr\u00e9\u00e9</w>": 1359, "\u00e9coul\u00e9s</w>": 30085, "saint-jacques</w>": 25962, "extru": 28025, "\uc5b8</w>": 56847, "naus\u00e9es</w>": 29185, "\u67f5</w>": 65152, "q-": 22127, "revenaient</w>": 38150, "d\u00e9paysement</w>": 30702, "d\u00e9pen": 20549, "\u8a6e</w>": 62748, "exploite</w>": 15167, "obscure</w>": 22602, "\u00e9quipages</w>": 21731, "\u00e9cu</w>": 26107, "\u00e9vidences</w>": 46095, "patriotique</w>": 22946, "appr\u00e9ci": 18214, "\u8fb2</w>": 54365, "trompettes</w>": 39523, "plume</w>": 6793, "emm\u00e8nera</w>": 44853, "no\u00eb": 40790, "77-": 47718, "acom</w>": 44103, "\u0947</w>": 63655, "quinquennal</w>": 44969, "\u00e9ter": 46686, "organisant</w>": 19772, "qualifi": 15631, "patrimoniaux</w>": 37611, "lcd</w>": 19393, "fem</w>": 27266, "alo</w>": 24933, "\u00e9v\u00e9nements</w>": 1813, "nostr": 45279, "lib\u00e9r\u00e9s</w>": 16213, "anciens</w>": 1523, "xixe</w>": 6238, "valais</w>": 35752, "energy</w>": 16132, "int\u00e9gralement</w>": 10881, "gnan</w>": 25656, "in\u00e9": 13637, "marg": 30228, "c\u00e9lesti": 39040, "p\u00e9dia</w>": 48583, "sangliers</w>": 43874, "finance.": 50235, "183</w>": 27824, "commer": 16886, "comptable</w>": 6476, "\u829d": 54220, "\u6a9c</w>": 65226, "4x4</w>": 21385, "centriques</w>": 33017, "this</w>": 7507, "commerces</w>": 4177, "\u04bf</w>": 58820, "\u7e26": 65813, "\u0581</w>": 53183, "\u5a3c": 64802, "aspects</w>": 2586, "\u0637": 50363, "one-": 28125, "\u5bc7": 55054, "tesla</w>": 25745, "\u932b</w>": 58624, "aires</w>": 2008, "adaptation</w>": 3220, "erie</w>": 2705, "ikea</w>": 27212, "pointue</w>": 37739, "inde": 41257, "raven": 44745, "\u67d8</w>": 65149, "becq</w>": 38648, "\u8543": 57788, "gouvernemental</w>": 15809, "skieur</w>": 41305, "colle</w>": 7675, "m\u00ea": 14720, "pr\u00e9pare": 49848, "\u7de9</w>": 57210, "\u00e9nergies</w>": 5511, "\u904a</w>": 57260, "aming</w>": 47086, "po\u00eb": 27456, "ames</w>": 26218, "\u03a5": 61181, "\u5586</w>": 64673, "\u130d</w>": 58921, "\u738b</w>": 50743, "ind\u00e9pendants</w>": 5005, "piss\u00e9</w>": 44515, "fuji": 31493, "\u1fe6": 49842, "\u58ec</w>": 59106, "eelv</w>": 23782, "augmentant</w>": 14151, "blogueuse</w>": 35581, "acer": 34309, "\u00e9cri": 7829, "in\u00e9dite</w>": 11282, "g\u00e9rants</w>": 29590, "contre-la-montre</w>": 29229, "een</w>": 25118, "sectorielles</w>": 23220, "embou": 33052, "\ubfcc</w>": 67049, "daily": 48941, "maintenance</w>": 6024, "trin": 18781, "ement-": 34381, "adh": 40866, "honneurs</w>": 15308, "\u00e9rotisme</w>": 34563, "\u6068</w>": 59179, "p\u00e8se</w>": 8382, "projections</w>": 11287, "\u5237": 60141, "bont\u00e9</w>": 13276, "commercialis\u00e9e</w>": 32664, "contenaient</w>": 36584, "cipa": 37638, "dessinent</w>": 28630, "tunisienne</w>": 19363, "vibra": 26635, "pastilles</w>": 39166, "\ud802\udd17</w>": 61110, "cobal": 49495, "souscripteur</w>": 44272, "voulut</w>": 12420, "autre</w>": 118, "juges</w>": 4331, "reviens</w>": 12992, "divine</w>": 7838, "f\u00fbts</w>": 29988, "25e</w>": 30370, "tx</w>": 39484, "17h": 30390, "ait-il</w>": 6936, "sali": 9832, "assis": 15326, "emballage</w>": 7496, "\u8a0e</w>": 57234, "maient</w>": 16007, "acute</w>": 49732, "consomm\u00e9</w>": 16093, "babylone</w>": 30676, "\ufe0f</w>": 67245, "\u8fd4": 57255, "nicolas</w>": 1703, "\u1f45": 50396, "hymne</w>": 14856, "errance</w>": 33144, "\ud800\udfb6</w>": 63390, "stefan</w>": 24316, "conditionn\u00e9e</w>": 36009, "\u2051</w>": 64253, "carr": 43873, "\u6b87</w>": 65246, "structure</w>": 1250, "inhibiteurs</w>": 22742, "\u22ee</w>": 56111, "\u0952</w>": 63657, "\u7edc": 60653, "\u5353</w>": 57040, "hunt</w>": 35532, "\u5660</w>": 64704, "\u7fdf": 59418, "aland</w>": 43222, "urbain</w>": 4602, "prou": 26223, "erement</w>": 27479, "observez</w>": 38687, "\uab3e": 66851, "convenables</w>": 41907, "hunter</w>": 25087, "puret\u00e9</w>": 12443, "envoler</w>": 22758, "trop": 21238, "\u0279</w>": 53879, "shei": 45465, "\u5b88</w>": 52594, "internationales</w>": 2158, "\u0c33": 63749, "5\u00e8me</w>": 15153, "pensez-vous</w>": 5903, "ming</w>": 15589, "granules</w>": 40795, "intrai": 45863, "\u63d0": 53624, "\u5e76": 62004, "pho": 7359, "tribu": 17149, "altesse</w>": 36055, "\u9d5c": 57291, "tapisserie</w>": 34562, "indestruc": 45838, "gratte</w>": 39666, "enfance</w>": 2608, "goutte</w>": 10271, "vent</w>": 1517, "d\u00e9sert</w>": 5722, "aussi": 18440, "photos</w>": 839, "succ\u00e8s</w>": 720, "\u6df1": 52602, "ger": 2249, "\u1267": 63855, "\u8499</w>": 57225, "pr\u00e9ci": 46954, "\u5b9f</w>": 53545, "\u0a39": 52344, "ates</w>": 7559, "\u0d0e": 63772, "\u6d45</w>": 57700, "omnies</w>": 36307, "\u00e2pre</w>": 34865, "autobus</w>": 11991, "victoire</w>": 1215, "rerai</w>": 39999, "nord-am\u00e9ricain</w>": 28099, "enfiler</w>": 24801, "soixantaine</w>": 15212, "semi-conducteurs</w>": 29950, "vire</w>": 22918, "profiteront</w>": 38904, "\u5a9b": 60237, "messire</w>": 43118, "subsistance</w>": 18375, "brunes</w>": 29748, "mentaux</w>": 16825, "rapie</w>": 48947, "claudi": 38221, "dissiper</w>": 27725, "\u7ecf": 53017, "\u8c31</w>": 60779, "\ua687</w>": 63104, "paper": 28456, "muscle</w>": 17455, "gler</w>": 18496, "pr\u00e9tention</w>": 15195, "achever</w>": 11097, "nad": 16987, "montrer</w>": 1720, "\u0f44</w>": 51626, "dir.</w>": 26268, "cauchem": 43610, "\u7db8": 62522, "\u5e33</w>": 56186, "\ud835\udc49</w>": 59735, "c\u00f4ne</w>": 24934, "games</w>": 11150, "\u6d2a": 51980, "taxi": 32440, "\u0aa7</w>": 63711, "cm2</w>": 24141, "soup\u00e7onne</w>": 21260, "assange</w>": 42500, "\u00c2": 50615, "\u82d1</w>": 54522, "\u044a": 50240, "orphelinat</w>": 36785, "intrins\u00e8": 50859, "nois</w>": 18086, "cachent</w>": 15664, "\u028c": 51758, "historiques</w>": 3224, "\ud800\udeca": 67344, "ast\u00e9ro\u00efdes</w>": 12611, "plur": 40810, "gaulle</w>": 8760, "d\u00e9plac\u00e9es</w>": 14614, "liu</w>": 27537, "confondus</w>": 18612, "desservie</w>": 22001, "\u2256</w>": 61595, "gastrique</w>": 42769, "aren": 33389, "psychique</w>": 17117, "\u96b8": 56791, "orages</w>": 20881, "l.</w>": 2291, "g-": 5646, "affrontement</w>": 11958, "maigre</w>": 15219, "lgv</w>": 43755, "insi": 18609, "\u6771": 50711, "exhibi": 45273, "lou</w>": 10409, "hume</w>": 47007, "psychologue</w>": 15960, "\ud835\udc12": 67469, "\u2461</w>": 51463, "dix-septi\u00e8me</w>": 38471, "distingu": 18878, "\u0f68</w>": 56930, "py</w>": 26534, "chirurgiens</w>": 26941, "maximal</w>": 11767, "obtiens</w>": 45538, "salve</w>": 41066, "r\u00e9volution</w>": 1898, "club</w>": 776, "profiter</w>": 1420, "blind\u00e9e</w>": 36069, "316</w>": 39962, "mdr</w>": 36885, "partant</w>": 6355, "biopsie</w>": 45650, "am\u00e9nag\u00e9es</w>": 28951, "pnu": 47969, "conjointes</w>": 31012, "conf\u00e9rer</w>": 24576, "dipl\u00f4mes</w>": 10552, "exposer</w>": 8283, "recherch\u00e9e</w>": 16596, "tour\u00e9</w>": 28175, "laissez</w>": 4632, "el</w>": 666, "rel": 3534, "r\u00e8": 11399, "\u00e9go\u00ef": 48176, "exact</w>": 9027, "\ua723</w>": 63112, "\u1fb1": 52780, "courtes</w>": 8383, "platon</w>": 19099, "ial</w>": 29190, "meurs</w>": 16399, "poign\u00e9es</w>": 17736, "weimar</w>": 46488, "activ\u00e9</w>": 15180, "attendaient</w>": 12082, "\u98e0</w>": 66637, "\u1d4c</w>": 64155, "\u1fc3": 51911, "roque": 31982, "r\u00e9trospecti": 34335, "\u99d5": 66658, "arbitrai": 50481, "allonger</w>": 18219, "d\u00e9sert\u00e9</w>": 37282, "affinit\u00e9</w>": 28427, "para\u00ee": 36530, "story</w>": 14224, "4a</w>": 43061, "co\u00efncide</w>": 23237, "festi": 16756, "\u5934</w>": 53928, "\uac15</w>": 55148, "\u00e9quation</w>": 12933, "\u8bca": 66234, "\u4e95": 51343, "\u6dc7": 58393, "\u00e9voluera</w>": 40661, "1998</w>": 2245, "obsol\u00e8te</w>": 29721, "jihadistes</w>": 18709, "arch\u00e9ologie</w>": 13746, "\u0441": 38582, "violoniste</w>": 33497, "chage</w>": 11816, "\u057d</w>": 51932, "imposait</w>": 24253, "sachent</w>": 30768, "\u606d</w>": 55071, "mere</w>": 27597, "spotify</w>": 37040, "registre</w>": 4811, "sollicitation</w>": 25519, "souten": 22713, "\u5075": 56530, "puis</w>": 183, "stor": 13369, "baltimore</w>": 29135, "\u00e9clair\u00e9s</w>": 23875, "\u70df</w>": 62328, "caux</w>": 14496, "\u5b34</w>": 58252, "hen": 6650, "\ub801</w>": 55157, "p\u00e9rill": 47982, "providence</w>": 16714, "\u9e43": 66753, "bocage</w>": 35492, "\u53ea": 54050, "balanc": 23555, "d\u00e9biteur</w>": 18181, "views</w>": 46712, "irrigation</w>": 19164, "%": 52653, "\u90ed": 51997, "\u89c4</w>": 66179, "consommation</w>": 1238, "repas</w>": 1949, "\u4f97": 57019, "d\u00e9cennie</w>": 7003, "\ud53d": 61074, "b\u00fbcher</w>": 37065, "\u952f</w>": 66514, "\u7f51": 56718, "pom": 4335, "mus\u00e9um</w>": 31662, "cur": 6856, "\u9f4b</w>": 54750, "bruxel": 48240, "victory</w>": 42217, "m\u00e9tamorpho": 32253, "ordin": 18061, "thers</w>": 48426, "souverain</w>": 7516, "\u83b2</w>": 60707, "\u52e3</w>": 64584, "med": 19558, "\u9510": 66512, "rev\u00eatir</w>": 27559, "oublient</w>": 24778, "nuanc\u00e9</w>": 42810, "potage</w>": 34613, "265</w>": 29336, "dustri": 37388, "intentions</w>": 6221, "office</w>": 1851, "parlons</w>": 11102, "tibet</w>": 17178, "sortir</w>": 1180, "broche</w>": 22447, "diffuse</w>": 11286, "macul": 34298, "demand\u00e8rent</w>": 46644, "harlem</w>": 32684, "buteurs</w>": 39102, "\u6795": 59250, "comptera</w>": 30618, "\u03a5</w>": 61180, "\u14a5</w>": 59935, "devenez</w>": 19851, "\u90c5": 66415, "rest\u00e8rent</w>": 33749, "petit</w>": 233, "\u2280</w>": 61597, "sollicit\u00e9s</w>": 24371, "esclaves</w>": 8096, "secr\u00e8te</w>": 9974, "calculs</w>": 8219, "\u0b9c": 55464, "\u723e": 54341, "continental</w>": 13946, "\ub458</w>": 60998, "blogos": 50020, "errer</w>": 41650, "profond": 47987, "\u1e65": 57468, "\u1425": 63914, "\u00e9pisode</w>": 2760, "s\u00e9pulture</w>": 28893, "changes</w>": 13109, "azar</w>": 33628, "longuement</w>": 10176, "bafou": 20497, "29e</w>": 45839, "fermetures</w>": 22921, "orang": 16696, "liquidation</w>": 13057, "carc\u00e9ral</w>": 42110, "sniper</w>": 42503, "\u758f": 59352, "\u1e53": 52623, "\u751f": 51208, "surplombant</w>": 30627, "taubira</w>": 21791, "\u582a": 59100, "ben</w>": 2396, "artistes</w>": 1750, "eee</w>": 19458, "turcs</w>": 9912, "pannes</w>": 24423, "consul</w>": 15498, "\ud835\udc97</w>": 63445, "\u3016</w>": 53607, "rateurs</w>": 12767, "\u7ec7</w>": 60652, "soutien": 40845, "proposition</w>": 1425, "istiques</w>": 31934, "autant</w>": 361, "msf</w>": 32279, "dates.": 49607, "r\u00e9du": 13230, "\u0578": 50707, "\u5fa1</w>": 56193, "oss": 11408, "\u7c9b": 65772, "anvers</w>": 15659, "\u763f": 65604, "invoqu\u00e9</w>": 24458, "fici": 18348, "centers</w>": 42367, "pu\u00e9ri": 30320, "rassurante</w>": 34499, "infinie</w>": 16363, "invent\u00e9</w>": 9942, "clash</w>": 31512, "itin\u00e9raires</w>": 13167, "ics</w>": 28866, "chypre</w>": 10243, "\u0d2d": 59882, "f\u00e9d\u00e9ralisme</w>": 37861, "normands</w>": 27516, "christie</w>": 38090, "vc</w>": 27071, "contre</w>": 127, "186</w>": 28879, "\u0151": 48774, "ins\u00e8re</w>": 30805, "figaro</w>": 8121, "gouttes</w>": 9977, "h\u00e9bergeur</w>": 34947, "d\u00e9gain": 40290, "\u1e79</w>": 61547, "ly": 3611, "incarc\u00e9r\u00e9</w>": 27541, "m\u00e2t</w>": 25078, "key</w>": 10578, "abu</w>": 23039, "execu": 27913, "sur-le-champ</w>": 30264, "clandesti": 45589, "menton</w>": 17643, "d\u00e9clinent</w>": 35033, "polym\u00e8res</w>": 15592, "j.-": 17075, "poissons</w>": 4106, "--la</w>": 45512, "coquel": 42612, "morin</w>": 16784, "\u0430</w>": 47454, "\u54b8</w>": 58219, "walk</w>": 32590, "cides</w>": 21545, "\ud808\ude26": 63418, "isol": 10884, "celle-l\u00e0</w>": 17315, "\u757f": 60560, "gr\u00e2": 48039, "\u3162</w>": 59019, "\u0686": 51205, "serais</w>": 5174, "\u9177</w>": 62885, "\u072b</w>": 59828, "\u65bc</w>": 62148, "c\u00e9dric</w>": 17170, "amt</w>": 43548, "reurs</w>": 29974, "jean</w>": 980, "\ua65d</w>": 63096, "ups</w>": 23157, "enrichie</w>": 22891, "exclusivit\u00e9</w>": 12622, "adn</w>": 6790, "cibles</w>": 6823, "th\u00e9matique</w>": 7744, "commandes</w>": 3457, "candidate</w>": 8190, "minier</w>": 20028, "reau</w>": 14035, "neuve-": 49331, "rejet\u00e9es</w>": 27896, "\u69df": 62221, "\u9320</w>": 60856, "\u58e4": 57058, "\u9f49</w>": 66780, "redu": 26876, "g\u00e9r\u00e9</w>": 8769, "d\u00e9cennies</w>": 4908, "p\u00e9nal</w>": 7765, "\u00e9lectroniques</w>": 4979, "restrictives</w>": 33906, "arcelormittal</w>": 39043, "\u6669</w>": 58339, "clermont-ferrand</w>": 22075, "xon</w>": 34593, "\u58de</w>": 64761, "lipi": 33410, "assembl": 18102, "collant</w>": 24359, "cocher</w>": 21637, "lau": 4510, "\u8ba9": 58562, "\u4f84</w>": 64486, "nov": 10136, "raisonnement</w>": 10376, "\u9315</w>": 60855, "connaisseurs</w>": 29391, "\u6ed5</w>": 60495, "\ua64f</w>": 57884, "mie</w>": 8768, "turbines</w>": 35436, "l\u00e9gendes</w>": 11513, "graine</w>": 18857, "effon": 48055, "\u0a87</w>": 61310, "\u96a3": 59585, "gluten</w>": 13792, "glu</w>": 35890, "remettre</w>": 2401, "trot</w>": 38533, "\u3053</w>": 52841, "durci</w>": 31483, "compacte</w>": 17255, "courez</w>": 46398, "\u850e</w>": 66050, "retourn\u00e9</w>": 12950, "application</w>": 525, "fermentation</w>": 19351, "\u2631</w>": 64330, "\u2113</w>": 50571, "cara\u00efbes</w>": 9397, "r\u00e9ponse.": 46402, "\u83aa</w>": 66014, "neutrons</w>": 40711, "\u0103</w>": 46014, "ruiner</w>": 23396, "assises</w>": 9376, "decolle": 46701, "han</w>": 6849, "\u300f</w>": 51385, "diag": 27476, "tification</w>": 42090, "\u66ff</w>": 62174, "137</w>": 21596, "\u0094</w>": 63466, "\u1ecd</w>": 51000, "tard\u00e9</w>": 27284, "soupape</w>": 13916, "ci-dessous</w>": 2266, "d\u00e9ca": 22245, "medef</w>": 16516, "\u7cfb": 53636, "construits</w>": 9715, "307</w>": 40732, "c\u00e9ven": 48026, "sieg": 40322, "heurter</w>": 25679, "encad": 48042, "jos\u00e9": 48138, "achet\u00e9e</w>": 20696, "\u1ee3</w>": 51990, "edin": 45658, "\u79ba": 60597, "y</w>": 67, "w</w>": 2094, "ologue</w>": 7932, "layer</w>": 40008, "gracieux</w>": 21878, "\u50a3</w>": 61770, "retard\u00e9</w>": 26185, "\ubcf8": 55417, "raquette</w>": 26425, "phora</w>": 41144, "dixit</w>": 33441, "ile</w>": 7465, "\u9a82</w>": 63031, "49": 16195, "\u85e5": 55381, "\u1001": 58035, "\u4ead</w>": 53919, "cens\u00e9</w>": 9109, "\u00e9conomies</w>": 3331, "ill\u00e9gale</w>": 11135, "va-t-on</w>": 45112, "nissan</w>": 16959, "\u5fe7</w>": 64932, "\ubc45</w>": 61022, "\u0160</w>": 63484, "uly": 49110, "aux": 7528, "anse</w>": 26475, "s\u00e9ch\u00e9s</w>": 35922, "\uc69c</w>": 67100, "p\u00e8lerins</w>": 17985, "yi</w>": 22869, "\u097b": 63673, "erry</w>": 46739, "\u9a13": 63021, "\u5305": 53289, "parisiennes</w>": 21764, "sociable</w>": 44196, "march\u00e9</w>": 323, "adorait</w>": 40512, "diode</w>": 32100, "dansant</w>": 29952, "\u23a4</w>": 56986, "choquant</w>": 29784, "\u8eac": 62819, "s\u00e9diments</w>": 24633, "81</w>": 4620, "loises</w>": 39582, "-l'</w>": 39983, "\u00e9tales</w>": 47916, "\u7fd4": 57763, "#": 51006, "130</w>": 6896, "cherez</w>": 44007, "\ud835\udc47</w>": 53872, "nunavut</w>": 36273, "pr\u00e9occupante</w>": 29404, "prononc\u00e9e</w>": 11096, "accents</w>": 16813, "zimbab": 47765, "circulait</w>": 33633, "trouv": 13614, "imp\u00e9": 25041, "\u096f": 63662, "leviers</w>": 19978, "d\u00e9chir\u00e9e</w>": 41659, "dend": 33595, "\u00e9pou": 16065, "\u14c4": 54606, "cependant</w>": 434, "privatisations</w>": 41537, "refr": 49821, "r\u00e9ussit</w>": 6376, "\ub82c": 66992, "renforts</w>": 17399, "get</w>": 9500, "financi\u00e8re</w>": 1639, "boite</w>": 6366, "dignes</w>": 12255, "\u1824</w>": 54611, "\u30de</w>": 53803, "sions</w>": 5807, "canadienne</w>": 3185, "\u222a</w>": 50911, "week-end</w>": 2566, "viie</w>": 43493, "\u8ff0</w>": 54731, "autobiographie</w>": 25731, "actionn\u00e9</w>": 42498, "un": 1817, "\u6bcb": 62243, "cuisin": 31944, "alen\u00e7on</w>": 38867, "fleury</w>": 26193, "\u53e5</w>": 53542, "\u5ec9": 55544, "\u0a8b</w>": 61312, "dupont</w>": 19913, "er.</w>": 27987, "impressionnante</w>": 11654, "inex": 49052, "\u2286</w>": 51818, "\u05d9": 49353, "joints</w>": 11800, "invite</w>": 2947, "zucker": 49871, "distanci": 44278, "\ucf70": 67173, "ghor</w>": 50511, "ful": 17591, "\u4e94</w>": 53365, "\u051b</w>": 61212, "dores</w>": 45807, "anor</w>": 45640, "contredire</w>": 30171, "neuvi\u00e8me</w>": 10111, "affili\u00e9e</w>": 37366, "fian\u00e7ailles</w>": 32479, "explosent</w>": 40786, "\u9122</w>": 66430, "discr\u00e8tement</w>": 15823, "ghazi</w>": 49150, "illir</w>": 47035, "d\u00e9ploiement</w>": 6487, "composante</w>": 9406, "cyclisme</w>": 15527, "swiss</w>": 26746, "\u7b46</w>": 55363, "\u101d": 58041, "isantes</w>": 31534, "divorc\u00e9</w>": 38707, "calan": 43806, "task</w>": 40864, "t\u00e9r": 18616, "\u1278</w>": 61399, "scoo": 49224, "alone</w>": 43720, "estonie</w>": 16061, "clave": 48587, "\u2934</w>": 58115, "\ud835\udf49</w>": 67527, "\u9418": 54537, "\u99df</w>": 66659, "apr</w>": 38110, "vez-vous</w>": 46920, "d\u00e9licats</w>": 21747, "lvmh</w>": 33957, "sous-traitant</w>": 42835, "\ucc1c</w>": 67138, "\u00e9nergiques</w>": 38366, "parois</w>": 9923, "r\u00e9alisme</w>": 11095, "rante</w>": 5779, "faudra</w>": 1885, "edine</w>": 45909, "5,5</w>": 13249, "partenaires</w>": 1434, "I</w>": 49845, "m\u00eame.": 40370, "uvre</w>": 24758, "coussins</w>": 18260, "mosqu\u00e9e</w>": 9540, "\u658c</w>": 56627, "nina</w>": 21229, "kindle</w>": 40823, "biggest</w>": 42751, "\ub180": 57299, "pr\u00e9tentieux</w>": 39994, "exp\u00e9riment\u00e9</w>": 12024, "juriste</w>": 20922, "banni\u00e8res</w>": 32175, "klax": 40404, "\u3127</w>": 58134, "e\u00fb": 36591, "\u9060": 52816, "umin": 48017, "suffrages</w>": 9820, "\u6c60</w>": 53475, "portes</w>": 1975, "visites</w>": 3863, "\u00e8se</w>": 9555, "r\u00e9cep": 11771, "steph": 20770, "thierry</w>": 5499, "ccas</w>": 41087, "coll\u00e8ge</w>": 2866, "raies</w>": 41977, "\u03b0</w>": 51384, "tac": 18633, "boutique</w>": 3203, "\u68f1</w>": 65191, "\u2194</w>": 50068, "\u1efb</w>": 59982, "profitez</w>": 6175, "canon</w>": 6448, "\u6a5f</w>": 52856, "low-cost</w>": 44226, "macar": 46969, "gauthier</w>": 20743, "mette</w>": 8661, "\u8cea</w>": 55627, "exacts</w>": 28319, "grippe</w>": 10434, "vis": 4086, "rel</w>": 10157, "br\u00e9siliens</w>": 21938, "dissocier</w>": 39792, "\u78d4</w>": 65677, "\u52bf</w>": 61813, "\u01b9</w>": 63489, "calisation</w>": 47054, "feder": 32878, "ski": 11955, "ctr": 49490, "d\u00e9contract\u00e9</w>": 35793, "\u311d</w>": 59003, "madril\u00e8ne</w>": 40562, "frayeur</w>": 32708, "\u83ba</w>": 66016, "op\u00e9rationn": 47460, "tramway</w>": 15105, "ajout</w>": 8308, "\u20b4</w>": 57487, "cons\u00e9cration</w>": 21445, "cois</w>": 48663, "r\u00e9capitulatif</w>": 26613, "\u9332</w>": 54737, "dipl": 41281, "clique</w>": 15626, "eo</w>": 10375, "charg\u00e9e</w>": 3834, "\u5fb7</w>": 51810, "confi\u00e9</w>": 5307, "carre": 45576, "\u82cd": 55118, "\u50f5</w>": 64526, "\ud835\udc32</w>": 67481, "normal</w>": 2918, "\u81e5": 62621, "dut</w>": 10357, "conf\u00e9rencier</w>": 33706, "nos</w>": 144, "\u8bd7</w>": 57809, "\u5bdb</w>": 57073, "sc\u00e9": 22358, "alphonse</w>": 18293, "homophobie</w>": 30093, "\u7ef4</w>": 57212, "\u00eame</w>": 17854, "b\u00fb": 27643, "\u8bc4</w>": 62772, "\u62d3</w>": 59208, "scrutins</w>": 28620, "geo</w>": 39838, "\u7130</w>": 65438, "15": 1669, "\ufefb</w>": 67289, "saint-joseph</w>": 31975, "\u6c92": 58378, "intempesti": 32080, "\u00e9largir</w>": 7748, "\u9245</w>": 66452, "po\u00ebte</w>": 35669, "\uc6a9</w>": 54103, "\ubaa8</w>": 59664, "cook</w>": 18058, "bello</w>": 37380, "pective</w>": 48668, "distill": 15787, "affrontent</w>": 15563, "perp\u00e9tuit\u00e9</w>": 22732, "lagon</w>": 37633, "efs</w>": 37746, "\u7403": 51981, "bandit</w>": 39776, "ene</w>": 13334, "\u9ed2</w>": 55660, "ci\u00f3n</w>": 30394, "aborder</w>": 5641, "madelin</w>": 46497, "soustrait</w>": 46702, "cacher</w>": 5751, "flat": 11460, "potassium</w>": 26125, "tsipras</w>": 28665, "moeurs</w>": 21556, "contr\u00e9e</w>": 21200, "haute-garonne</w>": 29900, "solos</w>": 34493, "trouvez</w>": 4607, "\u81d8": 59437, "\u1e2d</w>": 55009, "sonde</w>": 10970, "publicit\u00e9s</w>": 11609, "\u1019": 54018, "meurth": 50646, "authentique</w>": 7111, "essen": 47876, "\uc548</w>": 54390, "huile</w>": 1637, "\u10d8</w>": 50506, "composantes</w>": 8243, "innom": 48212, "\u7d2f": 65793, "r\u00e9ussir</w>": 4002, "jolies</w>": 8039, "oublions</w>": 13201, "\u913a": 66434, "poses</w>": 19663, "distingu\u00e9s</w>": 29723, "anony": 27891, "lettonie</w>": 16440, "poite": 41981, "mw": 34738, "entra\u00eenent</w>": 14718, "\u5b05</w>": 64820, "lon</w>": 9877, "emens</w>": 10202, "limit\u00e9e</w>": 3785, "aggraver</w>": 18765, "eccl\u00e9": 50284, "\u2173</w>": 54621, "roissy</w>": 31722, "omy": 34784, "compostage</w>": 42437, "ciers</w>": 28693, "prennent</w>": 2427, "enseign\u00e9</w>": 15611, "ants</w>": 1269, "\u8569": 60723, "\u66b9": 65126, "multi-": 8370, "parai": 46898, "inspir\u00e9s</w>": 14557, "nitra": 50544, "bary": 32773, "h00</w>": 8878, "r\u00e9sonnent</w>": 42729, "alsaciens</w>": 29361, "\u6ce2</w>": 53155, "malencontr": 38469, "\u9e75</w>": 66762, "\u5c7f</w>": 59140, "collecte</w>": 4259, "\u9857</w>": 56331, "\u6da1": 65311, "mire</w>": 20975, "\u00e9craser</w>": 14607, "extensible</w>": 25180, "library</w>": 40817, "d\u00e9tection</w>": 4861, "cueillette</w>": 27610, "els": 31249, "tonalit\u00e9s</w>": 38714, "cil": 37220, "armateur</w>": 45234, "\u85e4": 51190, "endor": 18236, "\u3289</w>": 59021, "<</w>": 9266, "\uc6c0</w>": 59687, "\u8335</w>": 66000, "copier</w>": 11345, "joignent</w>": 33854, "\u77ad": 65643, "gay</w>": 7256, "41</w>": 3188, "\u8d63</w>": 66302, "\u901d</w>": 62852, "reproduc": 34444, "oublier</w>": 2139, "\u570b</w>": 51487, "atteignit</w>": 42097, "\u606f": 56196, "jup": 32296, "cout</w>": 28947, "embarcation</w>": 25512, "\u299f</w>": 64356, "\u2d40": 54142, "\u65c5": 53470, "prenant</w>": 2939, "coin": 17829, "ary</w>": 7247, "\u9898": 62991, "neaux</w>": 42071, "printemps</w>": 2399, "ventre</w>": 5881, "animale</w>": 8854, "d\u00e9dicace</w>": 24940, "\u2c9d</w>": 64378, "pressions</w>": 6969, "disper": 28217, "omb</w>": 48827, "sponsoring</w>": 45772, "\u58be": 60207, "-": 200, "ace</w>": 11044, "ard</w>": 1608, "attentifs</w>": 18780, "agit</w>": 406, "guillaume</w>": 4642, "gu\u00e9e</w>": 14413, "\u1d27</w>": 64145, "mar\u00e9": 47932, "nymph": 40895, "\u90b5": 53853, "cateur</w>": 20920, "intranet</w>": 31266, "\ufec1</w>": 67275, "penser</w>": 1384, "amiante</w>": 20162, "r\u00e9gime</w>": 904, "texte</w>": 742, "barrer</w>": 37797, "mard</w>": 33717, "fon": 4733, "adour</w>": 33185, "inoxydable</w>": 21095, "ody": 26595, "\u3005": 53126, "\u099b</w>": 55725, "\u8fd9</w>": 60819, "\u5506</w>": 61865, "1796</w>": 39358, "\u6b65</w>": 57686, "\u00e9cologiste</w>": 18225, "\u5272</w>": 57556, "conser": 29176, "pr\u00e9sent\u00e9es</w>": 5527, "nouveau-mexique</w>": 32399, "patient": 39308, "\u6c47</w>": 59284, "lure</w>": 22033, "\u1f62": 53355, "malheureuse</w>": 16364, "\u09f1": 61299, "\u5c3e": 52717, "oli": 5518, "\u2d47</w>": 61673, "ologues</w>": 10706, "perturbe</w>": 34191, "\u7498</w>": 60547, "fleur": 16040, "hebdomadaires</w>": 17555, "\uc308": 67074, "marqueurs</w>": 20046, "52": 26694, "afficher</w>": 2557, "institut</w>": 1958, "cotation</w>": 13152, "fonctionnelle</w>": 8989, "effroy": 46995, "official</w>": 32598, "\u0924": 50686, "\uc67c": 67099, "art</w>": 627, "inqui\u00e9tudes</w>": 9732, "soft</w>": 11610, "toulousains</w>": 43213, "fendu</w>": 43395, "\u7696": 55109, "am\u00e9riques</w>": 20799, "\u8870": 66146, "leurre</w>": 32214, "godard</w>": 35417, "ereau</w>": 39316, "colin</w>": 17073, "incarne</w>": 9884, "flav": 29780, "\u6000": 55069, "dg</w>": 11969, "\u4e5d</w>": 53917, "\u6319</w>": 58309, "karachi</w>": 46133, "\u6f06": 62305, "\u00e9gards</w>": 16788, "constitue</w>": 1578, "\u5775</w>": 60195, "\u0e24": 56430, "formulation</w>": 10490, "s4</w>": 41490, "attirant</w>": 23613, "\u06b5": 57383, "rattrap": 28395, "\u7950": 55358, "ru\u00e9e</w>": 40776, "limousine</w>": 41735, "probation</w>": 30572, "\u67af": 62189, "dorado</w>": 49319, "napoli": 28421, "\u7119": 65436, "beth": 34150, "ful</w>": 18224, "bl\u00e2mer</w>": 32999, "\u7f55": 62559, "veillera</w>": 39010, "\u4f09</w>": 64474, "g\u00e8": 38359, "expec": 24973, "scru": 14440, "\u61cb</w>": 58297, "subsist": 35510, "kigali</w>": 41348, "munies</w>": 37525, "satis": 16881, "1852</w>": 28389, "pures</w>": 22265, "p\u00e9rip\u00e9": 48989, "poussant</w>": 15350, "\u9bae</w>": 55408, "bourse</w>": 2867, "\u9e81": 66765, "jak": 28917, "centr": 6797, "oon</w>": 22829, "r\u00e9cital</w>": 41076, "b\u00e9e</w>": 10892, "enta</w>": 19632, "sassou</w>": 37510, "con\u00e7ue</w>": 6299, "\u81fc": 58506, "phine</w>": 48194, "\u8695</w>": 57791, "\u9830</w>": 66613, "irc</w>": 34310, "culminant</w>": 20086, "\u672b": 53725, "\u123c</w>": 61396, "vont</w>": 694, "semblerait</w>": 10254, "\u0ab0": 53893, "marke": 47731, "293</w>": 43708, "su": 1086, "exploit</w>": 10934, "\u2d59": 51154, "partie</w>": 154, "tionn\u00e9</w>": 11046, "slogans</w>": 20404, "aucun</w>": 417, "lisse</w>": 8270, "constru": 12300, "dil</w>": 35242, "berlin": 17558, "d\u00e9tect\u00e9s</w>": 34283, "fustig\u00e9</w>": 44092, "nick": 19068, "\ud649</w>": 67217, "sinon</w>": 1682, "pr\u00e9cisi": 49029, "r\u00e9duirait</w>": 46678, "\u179c": 52436, "\u00e9v\u00each\u00e9</w>": 32021, "40-": 29110, "1,50</w>": 33016, "civiles</w>": 7993, "uni\u00e8me</w>": 25949, "actrices</w>": 19654, "marrant</w>": 22307, "\u7511</w>": 65568, "estre</w>": 17878, "agite</w>": 25257, "\u30f3</w>": 50814, "\u4e24</w>": 61720, "\u0ec2": 54602, "\u632f</w>": 58310, "origin": 16361, "\u00e9lections</w>": 1437, "\u64ad</w>": 59227, "carib": 33737, "323</w>": 41498, "qatar</w>": 10396, "potes</w>": 13631, "\u00e9talement</w>": 34126, "\u8178</w>": 58504, "\u00e9gar\u00e9s</w>": 44404, "pr\u00e9sentant</w>": 2915, "propension</w>": 29691, "lucien</w>": 14128, "ratios</w>": 36693, "oriz": 37070, "doute</w>": 675, "sul</w>": 43871, "niers</w>": 14005, "clitoris</w>": 44173, "gironde</w>": 15237, "d\u00e9centralis\u00e9e</w>": 35180, "auxili": 49270, "\u79d8</w>": 56264, "enchan": 20625, "ordonner</w>": 18803, "outrem": 30665, "bbc</w>": 11471, "amandine</w>": 42422, "chaises</w>": 8343, "falcon</w>": 39447, "collect\u00e9e</w>": 25240, "familles</w>": 1228, "eng": 6977, "consensuelle</w>": 44079, "\uc158</w>": 57901, "dja": 38924, "\u30e7": 51439, "\u756a": 53157, "afrique</w>": 978, "trente-six</w>": 40056, "exprimant</w>": 15720, "sc": 4174, "price</w>": 14150, "\u7bc6</w>": 55603, "\u8207": 53642, "\u8d5b": 57251, "\u8912": 59481, "assurera</w>": 19356, "l\u00e9</w>": 3103, "augmente</w>": 4377, "210</w>": 14705, "comt\u00e9</w>": 5425, "situations</w>": 2613, "\u0d94": 61368, "tirera</w>": 45250, "gladi": 34084, "\u0219</w>": 49209, "retourn": 11962, "thrombo": 36664, "caprice</w>": 31008, "inra</w>": 34675, "soudanais</w>": 25349, "W": 49671, "add.1</w>": 25627, "lign\u00e9es</w>": 29340, "h\u00e2": 10820, "\u12c8": 53438, "accus\u00e9s</w>": 8885, "\ud802\udd21</w>": 67434, "f\u00e9minins</w>": 15710, "t2</w>": 20177, "\u315b</w>": 60068, "hoch": 35551, "\u5974": 56173, "d\u00e9linqu": 48167, "cyri": 48045, "\u8c55</w>": 66265, "268</w>": 35137, "proph\u00e9ties</w>": 43085, "phobe</w>": 21953, "\u00e9trangement</w>": 17986, "compt\u00e9s</w>": 36483, "paress": 47111, "circonst": 49343, "\u5b89": 50767, "t\u00e9n": 49379, "\u601c": 62040, "tisser": 45026, "occident": 43455, "bouts</w>": 13424, "\ubcfc": 58719, "\ud800\udeaa</w>": 67324, "prononc\u00e9</w>": 6521, "\ufee1</w>": 61099, "\u660e": 50866, "geante</w>": 16953, "pr\u00e9par\u00e9e</w>": 14100, "facts</w>": 47480, "cev": 48040, "9\u00e8me</w>": 32948, "gis": 10623, "conjugu\u00e9s</w>": 40757, "lib\u00e9r": 20004, "\ud0c4": 58741, "zelda</w>": 33578, "labels</w>": 18674, "experts-": 46715, "calcium</w>": 15546, "\u911e": 60837, "\uc220": 53990, "\u1f27</w>": 64216, "plupart</w>": 779, "\u705d": 65409, "\u03df": 59783, "\u00e9co</w>": 28157, "ventions</w>": 47735, "\ubb18": 61019, "massages</w>": 19651, "<": 49891, "\u04a7</w>": 57371, "complexes</w>": 4561, "intol\u00e9rable</w>": 30862, "fique</w>": 16595, "\u9759</w>": 56798, "d\u00e9montage</w>": 31268, "ez-la</w>": 23699, "floue</w>": 29396, "\u6c60": 52360, "m\u00e9diterran\u00e9e</w>": 5784, "\u62e1</w>": 58308, "6,00</w>": 37289, "enceintes</w>": 9185, "guis": 42070, "brocante</w>": 39193, "merri": 41041, "handicap\u00e9s</w>": 9183, "universellement</w>": 38579, "28.": 20106, "rich</w>": 21621, "lisibilit\u00e9</w>": 24790, "rie</w>": 6206, "\u715c": 62338, "im</w>": 9733, "culturel</w>": 3086, "\u092b": 53113, "\u1e0d</w>": 50806, "coupant</w>": 26104, "\uc874": 55424, "\u73ed</w>": 52564, "exception</w>": 2476, "30e</w>": 34010, "\u8e48": 62818, "\u61ff</w>": 59193, "\u2200</w>": 50775, "canton</w>": 4509, "\u012f</w>": 51061, "sous-titre</w>": 39939, "affecte</w>": 12437, "circul": 19510, "fiche</w>": 2333, "commerciaux</w>": 4109, "hip": 20037, "lerie</w>": 25805, "trafics</w>": 25595, "liation</w>": 35199, "\u121d</w>": 53119, "\u7d0d</w>": 56275, "ati": 4111, "tements</w>": 11862, "vignobles</w>": 18655, "environnement</w>": 618, "\u0d31": 58893, "\u3070": 52993, "combin\u00e9e</w>": 16111, "rosalie</w>": 44265, "\u5984": 60224, "\u9665</w>": 62953, "m\u00e9taux</w>": 7451, "surtout</w>": 291, "rienne</w>": 33877, "diff\u00e9ren": 16961, "infra</w>": 46343, "enflammer</w>": 39345, "gent-": 39332, "riant</w>": 17651, "r\u00e9duites</w>": 15375, "\u2782</w>": 52673, "repr\u00e9sentations</w>": 5943, "pr\u00e9cit\u00e9s</w>": 40398, "\u0109</w>": 51507, "perquisition</w>": 25364, "unie</w>": 14064, "\ubc2d": 67028, "\uff44</w>": 57923, "nasdaq</w>": 20926, "puissiez</w>": 14741, "\u4fd7": 56139, "\u96f6</w>": 56795, "islamabad</w>": 45965, "fleuries</w>": 42577, "\u0153ur</w>": 44557, "\u1e71": 64202, "sies</w>": 22060, "xiie</w>": 21105, "mit</w>": 3963, "stimule</w>": 22366, "meur": 16362, "int\u00e9ressants</w>": 8602, "clai": 14903, "d\u00e9passent</w>": 12172, "levi": 34062, "vants</w>": 39323, "sommaire</w>": 4087, "oca</w>": 46265, "raill": 17497, "kaf": 29376, "immatricul": 26139, "\u04b3</w>": 58819, "chall": 41475, "alexander</w>": 12878, "ant\u00e9rieurs</w>": 16615, "revanche</w>": 1678, "primer</w>": 41871, "oire</w>": 8295, "\u838e": 59454, "oui": 28607, "rcs</w>": 20623, "motiv\u00e9e</w>": 16610, "\u57f7": 55292, "urgences</w>": 11579, "\u2206</w>": 49806, "1300</w>": 25335, "\u4e08</w>": 56510, "maquillage</w>": 8255, "symbolique</w>": 6051, "ee": 33851, "rayonne</w>": 42299, "\u00e9p\u00e9e</w>": 8191, "helsinki</w>": 25754, "valse</w>": 32077, "\uadfc": 54751, "\u97ed": 66607, "quiers</w>": 47478, "titular": 30437, "travaillais</w>": 34260, "kou</w>": 24755, "hongro": 47956, "douteuse</w>": 28407, "\u54b8": 55818, "etown</w>": 32543, "\u5e26</w>": 59157, "azimuts</w>": 40483, "nig\u00e9rian</w>": 36221, "rattrapage</w>": 23269, "populations</w>": 2348, "\u8d2b": 66291, "1825</w>": 35391, "bas\u00e9</w>": 3808, "erin</w>": 42300, "\u6e0b": 57706, "r\u00e9seau": 47512, "\u17a3</w>": 61478, "\u00eat</w>": 30387, "elles": 16325, "\u8c2f</w>": 66259, "noi": 19919, "st\u00e9ph": 47067, "\u74b0</w>": 56685, "acquiert</w>": 15051, "mca</w>": 45686, "\ud800\udfd0</w>": 67403, "bourdieu</w>": 42547, "ben": 2617, "daw": 41445, "\u61f5": 64989, "focalisation</w>": 40086, "nazi</w>": 17091, "rigol": 13776, "\u0989": 53259, "gregory</w>": 32673, "\u5eab</w>": 53937, "\u6558</w>": 65087, "\u649e": 65072, "\u1262": 58052, "stimul\u00e9</w>": 44309, "autorisations</w>": 12638, "\u0b2e</w>": 61336, "rejoindre</w>": 2488, "australi": 29090, "ssac</w>": 40395, "lac-m\u00e9gantic</w>": 42952, "activ\u00e9e</w>": 21740, "anglet": 48189, "pari": 8088, "evangile</w>": 23493, "d\u00e9chetteries</w>": 31232, "ajoutera</w>": 34039, "membre</w>": 878, "oning</w>": 36466, "\u03a6": 59780, "eur.": 10784, "semble-t-il</w>": 11241, "\u057a": 52005, "est": 7978, "\u091b": 54010, "obstination</w>": 34437, "normandie</w>": 7990, "\u6309": 60350, "\u5427</w>": 60169, "informatiques</w>": 6415, "cheese": 43908, "\u229b</w>": 64307, "ain-": 24812, "\u0d37</w>": 58894, "qualit\u00e9</w>": 337, "\u8399</w>": 66013, "eras</w>": 14381, "\u8972</w>": 57794, "sugg\u00e8rent</w>": 18016, "flots</w>": 16544, "sement</w>": 15973, "salah</w>": 25098, "fx</w>": 31504, "coudes</w>": 26816, "\u2222</w>": 60005, "doir</w>": 37335, "23</w>": 927, "\u0133</w>": 52880, "engag\u00e9es</w>": 8968, "moule</w>": 6663, "tan\u00e9e</w>": 48922, "ian</w>": 10943, "millim\u00e8tre</w>": 43668, "\uc694</w>": 52457, "\u84a1</w>": 66040, "fatigu\u00e9e</w>": 24306, "puc": 43313, "etage</w>": 26485, "rable</w>": 7977, "immis": 44063, "4.2</w>": 22314, "\u5dba</w>": 53826, "val</w>": 3935, "keep</w>": 36357, "notori\u00e9t\u00e9</w>": 9790, "en": 390, "decision</w>": 27241, "efficaces</w>": 4147, "\u00e9teint</w>": 12499, "ruines</w>": 9142, "p\u00e9ninsule</w>": 10441, "double</w>": 1126, "cultiv\u00e9es</w>": 22777, "surabon": 44955, "contiendra</w>": 41861, "on\u00e9reuse</w>": 40388, "\u5349</w>": 64595, "\u7c73": 52208, "parodie</w>": 24162, "chaine</w>": 10137, "\u4e4b": 50890, "viennois": 40906, "plancher</w>": 8855, "season</w>": 30301, "\ub8f9</w>": 59659, "\ua778</w>": 63140, "inconv\u00e9nient</w>": 14443, "r\u00e9formateurs</w>": 41846, "wave</w>": 24879, "dires</w>": 18598, "pyth": 48754, "m\u00e9tall": 29697, "vient-il</w>": 39577, "gpa</w>": 37913, "\u00e9cole</w>": 624, "pathologique</w>": 28850, "cale</w>": 6424, "\u8279</w>": 60694, "homicides</w>": 36115, "maison</w>": 257, "technicit\u00e9</w>": 35479, "\u313f</w>": 61712, "p\u00e9age</w>": 24926, "discr\u00e8te</w>": 11545, "claudio</w>": 35765, "biotechnologie</w>": 25182, "involontairement</w>": 32363, "coca\u00efne</w>": 18772, "a\u00ef-": 49185, "ae</w>": 7514, "demeurait</w>": 25328, "franco-": 7224, "cataly": 26457, "240</w>": 12188, "reportage</w>": 8026, "cill": 18101, "\u7e26</w>": 59409, "championne</w>": 11021, "iss\u00e9s</w>": 23625, "\u7d9a": 58480, "\u30c2</w>": 61691, "valorisation</w>": 7588, "\u8258": 65966, "cker</w>": 13749, "mezzanine</w>": 19975, "dispute</w>": 9990, "blueto": 50078, "tairement</w>": 47158, "9,6</w>": 42799, "edo</w>": 25216, "crie</w>": 17119, "head</w>": 13080, "\ufe4f</w>": 63334, "aragon</w>": 22827, "all\u00e9gorie</w>": 38948, "g\u00e8nes</w>": 6374, "\ub9f9</w>": 58712, "ellation</w>": 39708, "dea</w>": 22539, "1895</w>": 22669, "m\u00e9tabolisme</w>": 20360, "ne.": 25445, "perspecti": 48717, "utilisera</w>": 25151, "l\u00e9galisation</w>": 30515, "investi</w>": 7544, "illion</w>": 43592, "\u949f</w>": 62923, "\u315a</w>": 58141, "rencontrons</w>": 37174, "meg</w>": 46735, "\u678b</w>": 65140, "initi": 11256, "\u8a2d": 55387, "\u9b27": 66696, "yor": 23357, "\u8584": 59464, "disser": 41436, "r\u00e9current</w>": 22885, "commente</w>": 12287, "cor</w>": 16437, "\u0e0b": 53897, "pr\u00e9munir</w>": 33278, "\ub9bf": 67005, "vibration</w>": 22376, "nuage</w>": 10617, "ie-": 37768, "apais\u00e9</w>": 39570, "assument</w>": 30481, "motif</w>": 3816, "d\u00e9bl": 43891, "r\u00e9pression</w>": 6234, "marquants</w>": 24039, "hiroshima</w>": 38277, "\ud800\udeb0</w>": 67328, "tiraient</w>": 45999, "pr\u00eates</w>": 14860, "placard</w>": 14022, "\u04d1</w>": 58823, "\u540c": 51605, "bloc-": 45543, "incontr\u00f4l": 48085, "\u0437": 49028, "neuilly</w>": 29636, "ebl": 49306, "35": 8215, "\u59fb": 58248, "\u1ff3</w>": 50569, "camion</w>": 7769, "jeta</w>": 17693, "choisis</w>": 5732, "ad-": 38918, "macron</w>": 3898, "cq</w>": 17052, "enflamm\u00e9</w>": 38140, "\u0716": 63622, "m\u00e9langer</w>": 5194, "\u718a</w>": 55099, "accentuer</w>": 18607, "anachron": 46484, "pour</w>": 31, "dor\u00e9s</w>": 20114, "de-l\u00e0</w>": 45150, "next": 44316, "r\u00e9f\u00e9r\u00e9</w>": 29531, "\u8df5": 66320, "\u78e8</w>": 55894, "\u8358": 56739, "dh</w>": 6370, "rassemblons</w>": 44708, "\u88f8": 62733, "rez-de-chauss\u00e9e</w>": 10619, "\u20ab</w>": 51485, "licorne</w>": 33099, "\u5a92": 57604, "head": 26365, "\u01ab": 59758, "\u4fee": 52299, "tord</w>": 34565, "rue</w>": 641, "alimen": 17522, "accouch\u00e9</w>": 40019, "raffer": 27066, "J": 34498, "michael</w>": 3769, "recueill": 19912, "28e</w>": 42183, "\u20b5</w>": 54817, "inspections</w>": 21716, "d\u00e9cor\u00e9</w>": 10422, "coproduction</w>": 44273, "\u8170": 60685, "\u7f77</w>": 62561, "formul\u00e9es</w>": 12436, "geois</w>": 33477, "\u5c09": 55835, "prend": 16587, "soign\u00e9e</w>": 16902, "saluant</w>": 31796, "dements</w>": 26645, "\u8607": 52181, "montois</w>": 35506, "\u82af</w>": 65979, "obes</w>": 47390, "lessive</w>": 24586, "g\u00e9raldine</w>": 46755, "toner</w>": 38932, "<special3>": 7, "d\u00e9gag\u00e9</w>": 15360, "d\u00e9tes": 18802, "b\u00e9n\u00e9dictions</w>": 42652, "amnistie</w>": 22575, "pack</w>": 8171, "hidal": 50295, "fournies</w>": 7644, "tien": 25250, "\uc5ed": 55166, "bouff\u00e9es</w>": 45246, "\u5f48": 59167, "mariages</w>": 11010, "quelques-": 49711, "compteur</w>": 10779, "\u4e2d": 50308, "\u01c3": 52734, "\u63b2</w>": 62106, "architecturaux</w>": 35415, "laisserait</w>": 30951, "valent</w>": 9585, "formations</w>": 3033, "r\u00e9sidentiel</w>": 13811, "oubli\u00e9</w>": 4138, "\u30e0</w>": 51733, "exhor": 19014, "avan\u00e7ait</w>": 27339, "deuxi": 46991, "\u77db": 62434, "marocains</w>": 16687, "dimensionnelle</w>": 39605, "sachets</w>": 25831, "attir\u00e9e</w>": 27166, "\u00e9rectile</w>": 43807, "\uc601</w>": 51784, "facilit\u00e9s</w>": 16502, "vac</w>": 28348, "\u02c6</w>": 48084, "\ub9e5": 63218, "bizarre</w>": 8043, "rythme</w>": 2203, "v\u00e9lodrome</w>": 34808, "parmesan</w>": 25859, "\uc3d9": 63246, "ckers</w>": 47358, "\u5782": 57056, "\u0a24</w>": 52659, "captain</w>": 26774, "\u0285</w>": 57358, "forge</w>": 20915, "riz</w>": 5358, "landry</w>": 29716, "12-": 8505, "150": 19757, "curri": 49078, "\u6cbc</w>": 56232, "dn": 29750, "orite</w>": 30464, "th\u00e9oriquement</w>": 19009, "\u5403</w>": 56554, "plem": 50091, "consult\u00e9es</w>": 28496, "cordialement</w>": 28467, "\u965b</w>": 59579, "abstin": 49421, "\u8d6b</w>": 60793, "matthew</w>": 20633, "pus": 47909, "\ud835\udc6a</w>": 56871, "\u06aa</w>": 63605, "adir</w>": 48541, "pouss\u00e9</w>": 6191, "\uc11d": 53664, "irresponsable</w>": 26868, "\u805a": 55612, "estompe</w>": 44388, "pourvoi</w>": 24818, "hong</w>": 9755, "6\u00e8me</w>": 17087, "impo": 32257, "jours.": 32529, "pollutions</w>": 34438, "321</w>": 35666, "occulter</w>": 39076, "75-": 46638, "souliers</w>": 24396, "\u6b62": 57140, "\u6085</w>": 62046, "h\u00f4pital</w>": 2144, "cristina</w>": 34829, "minable</w>": 37727, "\u54aa</w>": 64639, "dro</w>": 34975, "dal</w>": 10594, "trafi": 38436, "\u98c4": 62994, "\u30c4</w>": 52552, "sereinement</w>": 16531, "\u00e9lance</w>": 44218, "\ub525": 66967, "gu\u00e9ri</w>": 31449, "comparables</w>": 12125, "m\u00e9diocres</w>": 28229, "mme</w>": 1101, "yn": 10748, "r\u00e9gimes</w>": 5072, "identique</w>": 5788, "naise</w>": 35624, "dominic</w>": 32699, "volley</w>": 36999, "dait</w>": 8339, "croisements</w>": 41187, "tra\u00eene</w>": 15773, "ographi": 34152, "\u6840</w>": 60410, "\u8339</w>": 66001, "31.12.": 31672, "poison</w>": 17958, "\u09b2</w>": 51392, "originel</w>": 20108, "\u00e9radication</w>": 24798, "\u044d": 50413, "quements</w>": 46432, "lepage</w>": 28339, "clavecin</w>": 46236, "virgin</w>": 28082, "insatisfaction</w>": 40696, "charnier</w>": 46093, "subordonn\u00e9</w>": 35305, "formalit\u00e9</w>": 29575, "\u00e7ait</w>": 9828, "tress": 16828, "\u871c": 56750, "\ud5cc": 57919, "\u2d4d": 50857, "halog\u00e9": 46261, "tius</w>": 36252, "arlette</w>": 43297, "incen": 47971, "\u57a3": 55824, "rock</w>": 2941, "incessantes</w>": 37865, "conditionn": 15499, "lement.": 40431, "finals</w>": 41539, "hang": 25437, "dysfonction</w>": 41191, "faisceaux</w>": 24751, "l\u00e9e</w>": 5619, "\u8247</w>": 58509, "toute": 48735, "toni</w>": 30061, "voiture</w>": 948, "fcfa</w>": 22014, "congol": 47038, "affranch": 39675, "br\u00e9sil</w>": 3557, "\u88d5</w>": 54721, "\uffe9</w>": 52613, "\u0d7a</w>": 63786, "\ud800\udf03": 67352, "envoyant</w>": 18229, "d\u00e9c": 5176, "7.5</w>": 43569, "\uff4c</w>": 57925, "\u1d73</w>": 64167, "forc\u00e9s</w>": 16046, "proportionnalit\u00e9</w>": 39567, "\u8aa5</w>": 62755, "2.1.": 20620, "changement</w>": 1142, "\u71d5": 52805, "rejoignit</w>": 44260, "weeks</w>": 42129, "ponction</w>": 45080, "m\u00e9nager</w>": 15160, "survenant</w>": 39275, "tr\u00e9</w>": 10118, "ghz</w>": 26519, "\u9065": 66387, "vecteur</w>": 12628, "just": 24447, "2c</w>": 27865, "ini": 6491, "arbres</w>": 2985, "38": 11942, "dl": 31667, "\u0713": 55193, "es.com</w>": 43075, "clemenceau</w>": 43167, "acciden": 31134, "\u1278": 55219, "presser</w>": 16240, "\ud800\udec7": 67342, "diaspora</w>": 21308, "110</w>": 7266, "crapau": 35328, "\u00e9merg\u00e9</w>": 33541, "demandons</w>": 11494, "nocives</w>": 42634, "\u7a0e": 65709, "fanny</w>": 23263, "incompatibilit\u00e9</w>": 34936, "marier</w>": 9748, "comparez</w>": 18904, "echo</w>": 25350, "contestataires</w>": 42177, "sel</w>": 2640, "\u0667": 61231, "intercept\u00e9</w>": 39797, "inf\u00e9rieur</w>": 3876, "\u047b</w>": 59789, "\ud802\udd12</w>": 63403, "vagin": 35720, "\u14d5": 56087, "testa": 42897, "och": 40325, "isit</w>": 19115, "\u069c</w>": 63602, "confond</w>": 25721, "joli</w>": 3795, "sombr\u00e9</w>": 44038, "b\u00e2le</w>": 15040, "\u30a5</w>": 58996, "qualit\u00e9-": 49881, "\uc218</w>": 51919, "set</w>": 5603, "interdisciplinaire</w>": 30611, "bronzage</w>": 33549, "still": 43314, "\u527f": 64571, "issons</w>": 8114, "r\u00e9guli": 44204, "mac": 3416, "rosen": 23053, "bush</w>": 7971, "kit</w>": 5554, "graphite</w>": 43396, "mb": 9874, "\u5b64": 55536, "\u8f1b": 66341, "expositions</w>": 5864, "\u9087": 66396, "\u4f50</w>": 55259, "\u00e9leva</w>": 35714, "\u7701": 53483, "id</w>": 9669, "\u5e99</w>": 54862, "capter</w>": 15816, "\u012d</w>": 51144, "industrielle</w>": 3779, "phrases</w>": 7417, "ong</w>": 3403, "ope</w>": 20677, "tournoi</w>": 3492, "monica</w>": 27876, "peillon</w>": 33816, "u.</w>": 21472, "pide</w>": 26098, "import\u00e9s</w>": 18261, "terrorisme</w>": 3335, "form</w>": 18356, "qu\u00e9s</w>": 5526, "nouvel</w>": 1531, "inside</w>": 35947, "dres": 9921, "strat\u00e8ge</w>": 34984, "encombrants</w>": 45371, "forc\u00e9</w>": 7686, "days</w>": 18550, "\ud2b9": 56003, "tard</w>": 537, "donnons</w>": 15683, "\u0bb9": 61343, "iowa</w>": 32451, "eman</w>": 14556, "\u81f3": 54518, "aliser</w>": 4732, "d\u00e9veloppement</w>": 243, "lopez</w>": 19165, "\u0db0</w>": 63792, "kei</w>": 44674, "puisqu</w>": 29334, "rale</w>": 8312, "\uae30": 51522, "\u82b9</w>": 59448, "afil</w>": 36367, "beni</w>": 46052, "aucuns</w>": 17956, "enix</w>": 45185, "acacia</w>": 43951, "ordonnant</w>": 40243, "auto</w>": 4660, "\uc5e0": 61041, "\ua4f2": 63087, "confidenti": 47814, "dispara\u00eetra</w>": 43809, "laura</w>": 14082, "\uce74": 55169, "\uab4c</w>": 66865, "quintes": 49959, "retrouv\u00e9s</w>": 9661, "\u671b</w>": 53626, "procur\u00e9</w>": 26296, "til</w>": 17441, "moyenn": 48237, "command</w>": 45149, "\u0726</w>": 61268, "carot": 45855, "enrico</w>": 41910, "r\u00e9sonne</w>": 28894, "ceux-": 48934, "fun": 10788, "devrai": 23572, "\u3075": 53059, "entendus</w>": 13583, "laurence</w>": 12639, "paris": 13704, "big": 30234, "\u8bf7</w>": 66244, "minime</w>": 22317, "orchid\u00e9es</w>": 41930, "astronome</w>": 33142, "\u00e9l\u00e9men": 29920, "\u00e9clectique</w>": 31070, "souver": 47831, "automati": 36608, "editions</w>": 14236, "\u0280": 51248, "\u53df": 61846, "approfondie</w>": 10598, "chartes</w>": 31884, "maintiennent</w>": 21208, "\u5b89</w>": 51591, "veto</w>": 21819, "cop</w>": 20534, "novembre</w>": 654, "\u019e</w>": 53876, "tofu</w>": 35999, "pr\u00e9c\u00e9dant</w>": 13679, "karim</w>": 15138, "wed</w>": 31495, "intac": 49941, "accident</w>": 2554, "\u7169</w>": 59320, ".alors</w>": 38935, "s\u00e9quence</w>": 5647, "\u00e9clairant</w>": 41185, "anti\u00e8me</w>": 47838, "vement</w>": 9792, "gusta": 48729, "\u6b46</w>": 62236, "t.la</w>": 39752, "\u5212</w>": 60137, "poin": 6093, "\ucfe4</w>": 67175, "impitoy": 41687, "forever</w>": 41179, "angu": 14405, "viens</w>": 2925, "tionnaires</w>": 29432, "\u856d</w>": 66074, "quitt\u00e9</w>": 3925, "rerait</w>": 17754, "fonction</w>": 467, "incar": 13462, "\u996d</w>": 57287, "sna": 25867, "multilat\u00e9rale</w>": 35910, "brique</w>": 15006, "\u706b</w>": 52603, "\u0113</w>": 50043, "wards</w>": 46587, "dispens\u00e9s</w>": 22961, "tax\u00e9</w>": 39509, "br\u00e9silienne</w>": 15689, "\uab39</w>": 66846, "giuli": 46689, "inconnues</w>": 17953, "\u6534</w>": 65082, "light</w>": 10551, "adr": 40350, "bordent</w>": 44536, "laurent-": 44767, "ac\u00e9e</w>": 34143, "soda</w>": 36627, "vieux</w>": 1367, "changea</w>": 32969, "additionnels</w>": 20733, "laz": 31141, "virent</w>": 20570, "jouaient</w>": 25330, "\u5275</w>": 58193, "dilma</w>": 43667, "\u00e9difi\u00e9</w>": 34604, "benghazi</w>": 34950, "\u522b</w>": 61801, "stagne</w>": 39148, "securi": 42758, "\u2e16</w>": 64402, "prononcer</w>": 6446, "\u7fa9": 51375, "courtoisie</w>": 19916, "m\u00e8": 12205, "\u1798</w>": 52507, "d\u00e9teste</w>": 13411, "infirmiers</w>": 15896, "penses</w>": 12569, "watt</w>": 32560, "\u757f</w>": 62403, "\u6c11": 50885, "saint-esprit</w>": 20707, "\u06f7</w>": 57977, "recoins</w>": 32909, "c\u00e9r\u00e9mon": 35187, "st\u00e9phane</w>": 5419, "ajouta</w>": 19923, "ador": 8522, "juteux</w>": 39458, "d\u00e9roul\u00e9e</w>": 11910, "tank</w>": 20433, "\u1fc7": 53693, "optimisme</w>": 14803, "fournir</w>": 1801, "\u9e7f</w>": 56336, "pred": 31139, "6,3</w>": 29088, "ombrage</w>": 40387, "crustac\u00e9s</w>": 28640, "facultative</w>": 30357, "fly</w>": 25563, "robo": 17981, "mozilla</w>": 25358, "parades</w>": 41960, "agan</w>": 37541, "2.000</w>": 14871, "unilat\u00e9ralement</w>": 37108, "\u127d": 63860, "immiscer</w>": 45954, "aurai": 20231, "\u1c64</w>": 64109, "le-": 4526, "\u7b46": 55602, "\uac89": 66903, "would</w>": 11500, "\u81c0": 65945, "virus</w>": 3941, "p\u00e9n\u00e9trant</w>": 32305, "349</w>": 45976, "rachet\u00e9e</w>": 34339, "mutualit\u00e9</w>": 30361, "\u10dd": 50642, "\ufe87</w>": 67252, "cair": 38484, "opep</w>": 34859, "snowboard</w>": 39668, "assouvir</w>": 31328, "hormis</w>": 9849, "hawks</w>": 23697, "\u0cb8": 53895, "incre": 29056, "\u0aa6": 55462, "n\u00e9cessaire</w>": 708, "3.</w>": 15663, "consult\u00e9s</w>": 18208, "supports</w>": 5766, "\u6d3d</w>": 58387, "souris</w>": 5144, "alstom</w>": 22693, "\u1294": 61403, "d\u00e9mocrate</w>": 7563, "offran": 50311, "\uc6cc": 57321, "\u2475</w>": 58978, "\u8173</w>": 59433, "super-": 12288, "tours</w>": 2756, "orgasme</w>": 25887, "\u539f</w>": 51473, "auvergne-rh\u00f4ne-alpes</w>": 44198, "butter": 39767, "\u7199": 53842, "exc": 29412, "plon": 13825, "moindres</w>": 10478, "naiss": 26980, "\u5fcd</w>": 55068, "aiguille</w>": 10544, "accueillie</w>": 18526, "\u9010": 58599, "url</w>": 12645, "torture</w>": 7154, "agr\u00e9\u00e9s</w>": 20592, "\u00e9car": 13918, "allur": 49208, "memphis</w>": 34401, "turaux</w>": 47928, "sagesse</w>": 7114, "\uc5bc</w>": 67090, "spatule</w>": 25040, "suites</w>": 8478, "\u30e6": 52944, "\u03c3</w>": 48693, "politico-": 22849, "mis\u00e9ricor": 50364, "enqu\u00ea": 20124, "\u8a69</w>": 52814, "vendus</w>": 5900, "\ub0a8</w>": 54753, "auxquels</w>": 3526, "libre-service</w>": 43511, "\u1f55": 50693, "\u57f7</w>": 60196, "valbuena</w>": 46296, "f\u00e9ministes</w>": 17960, "estival</w>": 30609, "situde</w>": 50115, "d\u00e9cimales</w>": 20499, "jurisprudence</w>": 9741, "poussa</w>": 26428, "cordill": 45050, "d\u00e9rogation</w>": 13554, "radio-canada</w>": 14558, "r\u00e9cup\u00e9r\u00e9e</w>": 36740, "eads</w>": 29269, "\u7cbd": 65777, "\u964d": 54094, "\u01da</w>": 51871, "\ucc28": 55425, "kart</w>": 39801, "citoyenne</w>": 11815, "cavale</w>": 39218, "anonyme</w>": 7844, "phobes</w>": 47598, "fr\u00f4": 20747, "\ub54c</w>": 66973, "\u62bc</w>": 60341, "ren\u00e9-": 45090, "helv\u00e9": 47640, "obligeant</w>": 19411, "replay</w>": 26974, "discriminatoire</w>": 23969, "lib\u00e9rale</w>": 9951, "\u90a2": 59552, "\u00e9vader</w>": 25432, "long\u00e9": 50094, "ft</w>": 8321, "\ubcc0</w>": 57897, "deal</w>": 12521, "\ubb3b": 67021, "tps</w>": 18869, "\ub124</w>": 56832, "agadir</w>": 43216, "d\u00e9pay": 46868, "syner": 47585, "autr": 16033, "cr\u00eates</w>": 30933, "bip</w>": 44369, "occasionn": 14270, "d\u00e9m\u00e9nagez</w>": 31841, "issement</w>": 4922, "tropi": 37702, "ancrer</w>": 38494, "sodium</w>": 18703, "venise</w>": 8471, "evas</w>": 39346, "lacs</w>": 7582, "ff": 2572, "r\u00e9put\u00e9e</w>": 13050, "\u5085</w>": 54643, "\u884d</w>": 57230, "r\u00e9pondresupprimer": 34501, "exercices</w>": 4524, "rocheuse</w>": 45023, "lors</w>": 167, "motiv\u00e9s</w>": 18796, "\u6d99": 60470, "esth\u00e9tiques</w>": 15313, "\u7464</w>": 65547, "annick</w>": 36890, "massivement</w>": 12686, "pourvoir</w>": 14453, "ent\u00e9rin\u00e9</w>": 42476, "\u897f</w>": 51796, "refrains</w>": 46716, "croyait</w>": 8823, "co\u00fbterait</w>": 35842, "silen": 35649, "entrem": 32817, "\ub80c": 61004, "\u00e9pouvantable</w>": 28981, "climats</w>": 26576, "f\u00e9minis": 34277, "\u072c": 52928, "harri": 44181, "2,50</w>": 28767, "\u221b</w>": 61592, "couronn\u00e9</w>": 21018, "mountain</w>": 20981, "d\u00e9rou": 14563, "\u9730": 62973, "r\u00e9gule</w>": 41758, "vesque</w>": 50404, "dauphin\u00e9</w>": 31531, "dions</w>": 25318, "homosexuelle</w>": 43168, "\u697d</w>": 54192, "matchs</w>": 2966, "\u6a90": 65224, "\u7f62": 60662, "cor\u00e9ennes</w>": 40487, "conjuguer</w>": 31490, "saurais</w>": 21052, "gambetta</w>": 40651, "reculer</w>": 12742, "d\u00e9tenant</w>": 39356, "cl\u00e9op\u00e2tre</w>": 45285, "phy": 7263, "logicielle</w>": 27288, "histo": 46459, "qu\u00eates</w>": 25340, "adjectif</w>": 24615, "oiselles</w>": 50003, "rh\u00f4ne-": 48111, "pareils</w>": 22139, "irr\u00e9gulier</w>": 33316, "\u2191</w>": 49271, "connectez</w>": 43819, "reglement</w>": 19952, "unifor": 49358, "\ud800\udea4": 67321, "sa\u00ef": 19520, "prudenti": 26836, "entretiennent</w>": 19712, "repassage</w>": 34021, "eventu": 43470, "davi": 26301, "\u628a": 57103, "perru": 33537, "halieutiques</w>": 45692, "malformations</w>": 45111, "\u937e</w>": 66477, "tra\u00eetres</w>": 36754, "\u7b87</w>": 62484, "accroissement</w>": 7378, "paraissent</w>": 9949, "admirablement</w>": 30218, "perversion</w>": 46633, "rit\u00e9</w>": 47511, "enqu\u00eater</w>": 14230, "restriction</w>": 12148, "fai": 3927, "assi</w>": 37113, "nappe</w>": 16294, "aissent</w>": 27596, "\u6db2": 60473, "\u0698</w>": 56899, "dernier</w>": 218, "chambou": 30916, "\u0edc": 63816, "schmidt</w>": 26073, "profitait</w>": 44078, "micka": 47588, "\u1208": 52582, "cotisations</w>": 6177, "5mn</w>": 45893, "flotter</w>": 33891, "bombe</w>": 7222, "diar": 47277, "fixations</w>": 37024, "sc\u00e8nes</w>": 3630, "pass</w>": 11788, "\u6d9e": 60471, "dns</w>": 27388, "ch\u00e8res</w>": 11621, "exorbi": 25094, "r\u00f4": 11069, "ri": 646, "salem</w>": 26822, "coupl\u00e9</w>": 16739, "suffixe</w>": 38332, "phoniste</w>": 35606, "ill</w>": 15717, "oir-": 47141, "automates</w>": 42007, "eiffel</w>": 19585, "\u2e2e</w>": 56996, "laiton</w>": 27354, "\u71c1</w>": 62345, "iser</w>": 3472, "strom": 39073, "carotte</w>": 21623, "dominante</w>": 8359, "nutritionnel</w>": 36110, "dus</w>": 5991, "\ub7fc</w>": 58705, "\u5f65": 60296, "d\u00e9taille</w>": 15709, "droi": 12417, "\ucd0c": 67151, "hante</w>": 35966, "\u6e9f</w>": 65346, "missement</w>": 25457, "\u7e23</w>": 51631, "aim\u00e9</w>": 3149, "fa\u00e7ade</w>": 6149, "\ucc10</w>": 67135, "renvoient</w>": 22900, "oul</w>": 16159, "\u044e</w>": 50862, "voie</w>": 984, "pr\u00e9mi": 49767, "\u53cc": 52382, "resserrer</w>": 28448, "penny</w>": 39800, "rapproch\u00e9</w>": 23944, "attractive</w>": 28200, "pr\u00f4nant</w>": 38523, "imp\u00e9n\u00e9tr": 41226, "zin": 13795, "consulaire</w>": 34383, "tensions</w>": 5364, "stein": 20448, "aer": 19041, "niennes</w>": 34924, ".au</w>": 22430, "fermant</w>": 30988, "vam": 44436, "r\u00e9silience</w>": 24418, "intimi": 26721, "\ud800\udf44</w>": 67384, "antagon": 47357, "fascistes</w>": 25639, "hein": 27667, "\u01b4": 52696, "appropri\u00e9s</w>": 10762, "mauss": 42659, "pr\u00e9parateur</w>": 43205, "nourrie</w>": 30725, "racisme</w>": 6465, "\u54fc</w>": 64651, "grer</w>": 48611, "dirigera</w>": 38764, "squa": 34530, "superstar</w>": 43950, "\u1427": 54133, "directe</w>": 3721, "gym</w>": 19360, "excusez-moi</w>": 43188, "08": 15700, "imminente</w>": 21721, "\u820e</w>": 56734, "isie</w>": 42517, "juda\u00efsme</w>": 20055, "nig\u00e9ri": 20877, "r\u00e9serv\u00e9es</w>": 15911, "grain": 41427, "ssd</w>": 27521, "rev</w>": 44088, "immatriculations</w>": 41235, "kremlin</w>": 20405, "\u752f</w>": 60554, "entretiens</w>": 7926, "d\u00e9voil\u00e9e</w>": 21226, "intentionnellement</w>": 42846, "\u00e9vapor": 22166, "\u06d4</w>": 55454, "mascotte</w>": 38467, "\u00e9meu": 38036, "shu": 12267, "d\u00e9mos</w>": 43575, "faiblesse</w>": 6147, "partira</w>": 21887, "\u52d6</w>": 64582, "\u72f8": 59328, "nar</w>": 24634, "multi": 2612, "avi</w>": 22654, "accessoire</w>": 9711, "enflam": 21892, "matisse</w>": 45236, "sanguin</w>": 18894, "r\u00e9v\u00e9l\u00e9e</w>": 14217, "\u7dba": 59404, "fructu": 47241, "\u87f9</w>": 58538, "\u14c3": 63934, "troubad": 43429, "\u8c0b": 62775, "mercato</w>": 21343, "cedeao</w>": 32606, "\u136a</w>": 63901, "din": 3617, "}</w>": 48524, "27": 8623, "cfc</w>": 37556, "semer</w>": 18940, "\u00c7": 50662, "directs</w>": 8643, "21,": 20071, "paysagiste</w>": 41068, "\u00e9tui</w>": 25242, "heurtent</w>": 31822, "\u6f6d": 55878, "pete</w>": 26236, "congr\u00e9gation</w>": 17309, "d\u00e9but\u00e9</w>": 6543, "oct": 30631, "giron": 40981, "d\u00e9finitives</w>": 33287, "labour": 29253, "aphro": 28804, "d\u00e9faillances</w>": 23928, "anth": 13810, "pla\u00e7ant</w>": 15653, "balis\u00e9s</w>": 46280, "califor": 36343, "cr\u00e9neau</w>": 16741, "product</w>": 40594, "d\u00e9fiscalisation</w>": 40442, "liennes</w>": 37101, "gt": 17992, "\uabb9": 59638, "classements</w>": 18461, "\u6387": 62097, "reprend</w>": 3948, "\u8f49": 56769, "drer</w>": 49088, "ruiss": 37810, "c\u00f4toient</w>": 22318, "obligatoires</w>": 8645, "doubl\u00e9s</w>": 43648, "\u8d27</w>": 62800, "gear</w>": 27517, "transmet</w>": 10911, "ph\u00e9nom": 47970, "soutenait</w>": 27960, "\u5834</w>": 51945, "2007-2008</w>": 28896, "\u2781</w>": 52038, "endommag": 37061, "\u5996": 53930, "pr\u00e9pare</w>": 4886, "girar": 34472, "unit</w>": 14892, "rami</w>": 41739, "rolland</w>": 30641, "accepter</w>": 2810, "jong-": 47689, "marquait</w>": 35045, "li</w>": 2940, "\ua7a5</w>": 60964, "\u0678</w>": 61235, "\u0583</w>": 56040, "Z</w>": 51490, "role</w>": 20354, "irr\u00e9fu": 45263, "leds</w>": 40588, "r\u00e9ciproquement</w>": 29576, "\u1ec9</w>": 52513, "action</w>": 421, "arr\u00eatons</w>": 38279, "\u8e1e</w>": 62816, "yne</w>": 19514, "\u6469": 52489, "d\u00e9cisif</w>": 10590, "d\u00e9battue</w>": 44065, "souscription</w>": 13707, "aris\u00e9</w>": 29889, "cass\u00e9e</w>": 24151, "ma\u00eetresse</w>": 7358, "discut\u00e9e</w>": 33038, "dran": 41958, "besoins</w>": 889, "apparut</w>": 25010, "die</w>": 2951, "\u2c34</w>": 61631, "drummond": 50074, "\u1e2d": 56097, "emont</w>": 30891, "calme</w>": 1296, "tueux</w>": 18608, "\u9d8f": 63056, "excessivement</w>": 27897, "\u0aa0</w>": 63710, "\u94fa</w>": 59573, "\u5149": 51135, "souterrains</w>": 27390, "taylor</w>": 11574, "es.les</w>": 28714, "bross\u00e9</w>": 44120, "parvenir</w>": 3538, "\uab4b</w>": 66864, "\u1781": 52408, "\u598a</w>": 60225, "\u7c40": 65763, "ast\u00e9": 43557, "pompier</w>": 23985, "\u0273": 52617, "breux</w>": 35602, "influenc\u00e9e</w>": 30107, "perturbation</w>": 21972, "\u5fd7</w>": 51765, "\u1edf</w>": 50971, "\u12a6": 56942, "neufs</w>": 11152, "\u5cd2</w>": 64860, "gru": 9712, "chauss\u00e9e</w>": 9434, "music</w>": 9331, "abattoir</w>": 31971, "\u5fb7": 51137, "\u8b0b</w>": 66213, "corr\u00e9": 16191, "electronique</w>": 29209, "\u7832</w>": 55356, "moell": 40641, "corrig\u00e9</w>": 17045, "primitifs</w>": 34970, "continus</w>": 31334, "topologie</w>": 46144, "d\u00e9tective</w>": 19880, "\u1290": 52833, "bleu</w>": 2306, "\u8b9a</w>": 66222, "d\u00e9cep": 49800, "quera</w>": 12349, "nale</w>": 35460, "non-prolif\u00e9ration</w>": 23795, "chu": 7036, "aran\u00e9omorphes</w>": 42190, "\u7262</w>": 65474, "rdvmedi": 58778, "\u5c48</w>": 57076, "guidon</w>": 25676, "zni": 34165, "noeu": 49808, "dorf</w>": 17484, "\u2c50</w>": 61652, "graal</w>": 28704, "\u30f1": 64413, "pudeur</w>": 19548, "matos</w>": 32087, "emarch\u00e9</w>": 44401, "concile</w>": 14754, "\uad6d</w>": 52530, "pass\u00e9s</w>": 4913, "exig\u00e9s</w>": 30109, "\u7436": 57720, "\u70c8</w>": 53959, "\u00e9teindre</w>": 12801, "\u636e": 60352, "bi\u00e9l": 50368, "annon\u00e7ait</w>": 13436, "\u1f72</w>": 50132, "terminal</w>": 6861, "valve</w>": 23336, "\u9769": 52872, "\u00e9tonner</w>": 16479, "cultivateurs</w>": 31081, "etabl": 48207, "\u69cc": 65205, "p\u00e9rim\u00e8tre</w>": 8166, "\u6a8e</w>": 65223, "\ua793</w>": 63144, "\u305f</w>": 51684, "int\u00e9rar": 57347, "oif</w>": 43566, "\u8fb9": 54226, "rep\u00e9r\u00e9e</w>": 40318, "queues</w>": 28945, "contextes</w>": 15346, "mjc</w>": 43892, "sobres</w>": 34931, "\u8bd1": 59506, "prudent</w>": 10741, "\uff4d</w>": 56005, "\ud800\udeb2</w>": 63376, "imposera</w>": 43742, "oligar": 32432, "\u51e4": 52951, "rain": 15575, "mouss": 12338, "\u30f5": 64415, "dispens": 27272, "mrc</w>": 19876, "capsules</w>": 20571, "v-": 15432, "autod\u00e9termination</w>": 23975, "cy</w>": 7157, "exciter</w>": 28176, "m\u00e2choires</w>": 35860, "\u00e9migr\u00e9</w>": 36266, "1883</w>": 27005, "\u7dab</w>": 65802, "\u2142</w>": 58972, "int\u00e9rieurs</w>": 9854, "trains</w>": 6150, "\u134b</w>": 58062, "plaisanteries</w>": 41750, "\u01b3</w>": 63488, "past": 12551, "\uaf2d</w>": 63183, "pare</w>": 21222, "\u7dbd</w>": 59405, "surchauffe</w>": 36984, "taxi</w>": 9378, "\u1794": 51341, "\u859c</w>": 62683, "st\u00e9phan": 49061, "h\u00e9l\u00e8ne</w>": 8027, "recrut\u00e9s</w>": 19055, "\u6797": 50903, "arch\u00e9ty": 46978, "accus": 34594, "barroso</w>": 32795, "law": 19854, "gl</w>": 32901, "discussion</w>": 3120, "\u2588": 56988, "entendre</w>": 1662, "ka": 4736, "\u4f11</w>": 55803, "boris</w>": 15500, "csc</w>": 29495, "\u901a</w>": 52282, "lampad": 36012, "nomme</w>": 6471, "\u0939</w>": 51576, "seb</w>": 37835, "dupli": 18741, "\u8000</w>": 57215, "ail</w>": 4636, "\u971c": 58648, "\u74f7</w>": 58434, "rayonnements</w>": 28669, "pillages</w>": 30648, "cket</w>": 26459, "cin\u00e9</w>": 19347, "m\u00e8nerait</w>": 46876, "\u534a": 52676, "gouvernants</w>": 26202, "\u9673": 51155, "\u793e": 51533, "spectaculaire</w>": 7237, "\ub2d8": 55977, "agh</w>": 38697, "festivaliers</w>": 36404, "d\u00e9bauche</w>": 28943, "mater</w>": 20042, "r\u00e9affirm\u00e9</w>": 16569, "navales</w>": 35733, "\u813e": 62607, "\u1b22</w>": 64095, "euri": 34045, "khom": 49206, "month</w>": 25549, "chi": 1585, "continuit\u00e9</w>": 6313, "\u0e16</w>": 58898, "some</w>": 15239, "denses</w>": 24441, "abuse</w>": 29854, "rappelle-": 30475, "vendanges</w>": 29930, "modification</w>": 2371, "\u8bc4": 56761, "\u0135": 51420, "ent-": 40566, "keley</w>": 50576, "reproche</w>": 8729, "ga</w>": 3389, "lanc\u00e9es</w>": 15558, "statu\u00e9</w>": 36823, "platines</w>": 40655, "gentil</w>": 8781, "empreint</w>": 34671, "effectuait</w>": 35573, "tim</w>": 10631, "r\u00e9f\u00e9renc\u00e9s</w>": 39409, "bestiaux</w>": 42044, "\u01eb</w>": 51007, "\u0b16": 61329, "\u09e9</w>": 51491, "\u0663</w>": 56405, "d\u00e9livr\u00e9e</w>": 18325, "suffisant</w>": 5846, "alerte</w>": 3895, "bvre</w>": 48807, "lari": 32767, "motive</w>": 25618, "boulots</w>": 34538, "\u93de</w>": 60860, "diff\u00e8re</w>": 15769, "e-s</w>": 15849, "\ud835\udc7d</w>": 63436, "\u3121": 64436, "queens</w>": 40767, "escor": 16036, "pr\u00e9nom</w>": 6514, "connaisseur</w>": 30432, "ravag": 17568, "cr\u00eapes</w>": 19932, "gnit</w>": 25772, "handicap\u00e9es</w>": 8565, "m\u00e9a</w>": 49830, "honoraire</w>": 27233, "ary": 37934, "obscuran": 48344, "adoptent</w>": 20684, "\u16d9": 64017, "\u6545": 52904, "queront</w>": 19281, "documen": 12808, "\u70ed": 56674, "noti": 24999, "250": 27982, "perron</w>": 28958, "trich</w>": 49746, "\u5904</w>": 60214, "investiture</w>": 16021, "\u7377": 65503, "ant": 8449, "laquelle</w>": 446, "zuela</w>": 48349, "\u6c47": 57144, "forcent</w>": 43006, "boursier</w>": 25870, "situdes</w>": 50389, "convention-": 50559, "santes</w>": 14753, "\u96c5</w>": 56793, "ut\u00e9r": 47163, "processeurs</w>": 24828, "incluses</w>": 19570, "conv": 24742, "hacker</w>": 39461, "cannes</w>": 6753, "reflets</w>": 14555, "garros</w>": 47045, "balayer</w>": 30340, "\u780d": 62437, "assiette</w>": 7361, "\u00e9tal\u00e9e</w>": 46371, "dale</w>": 12289, "\u1ea1": 49655, "pr\u00e9conis\u00e9e</w>": 46130, "redevenu</w>": 40004, "boy": 10674, "\u9088</w>": 58606, "modifier</w>": 2049, "oder": 43517, "poursuive</w>": 40070, "\uc88c</w>": 67121, "cd-rom</w>": 29845, "grenelle</w>": 21126, "\u702c": 54207, "d\u00e9lirant</w>": 41161, "souveraines</w>": 39506, "\u12b8": 61406, "volts</w>": 35301, "postule</w>": 35027, "d\u00e9bor": 20995, "maladi": 29658, "number</w>": 29436, "colm</w>": 50180, "reliefs</w>": 22097, "\u5385</w>": 61840, "discute</w>": 17020, "\u7597": 65589, "ouragans</w>": 43973, "\u599d</w>": 64782, "\u6f54": 65375, "contr\u00f4l\u00e9s</w>": 17015, "quement</w>": 5253, "\u73ea</w>": 58425, "rentre</w>": 6595, "courto": 48366, "emprise</w>": 12653, "busier</w>": 46568, "intemporel</w>": 35010, "ambigu": 47198, "\u24ea</w>": 55021, "\u1646": 63965, "arr\u00eater</w>": 2268, "liam</w>": 28861, "ouvrier</w>": 8347, "\u963f": 51118, "privati": 27539, "aster</w>": 28464, "pourrie</w>": 40858, "\u3073": 53801, "\u3064</w>": 52319, "federer</w>": 19275, "effu": 48610, "d\u00e9rob\u00e9</w>": 40713, "b\u00e9lier</w>": 31025, "d\u00e9fici": 22686, "smith</w>": 7487, "cimen": 28034, "\u79e6": 52113, "vo\u00efvo": 48640, "contagion</w>": 30753, "lissage</w>": 39910, "tall": 28259, "toient</w>": 24213, "yage</w>": 46204, "phase</w>": 1631, "orienter</w>": 8745, "ma\u00eetres</w>": 4840, "islamoph": 43772, "\u699b": 62218, "entra\u00eenait</w>": 39773, "keys</w>": 33858, "istan": 47824, "pv": 20490, "r\u00e9glemen": 40279, "\u5404</w>": 58214, "donne</w>": 505, "br\u00e9silien</w>": 9714, "sexuelle</w>": 4571, "lucarne</w>": 35675, "\u6d49": 65296, "\u5b9b": 56584, "p\u00e9troli\u00e8res</w>": 18853, "\u0269</w>": 50907, "satisfaisants</w>": 33557, "envisageables</w>": 37885, "rassurant</w>": 16509, "albanie</w>": 18006, "coca\u00ef": 49597, "\u8475": 59460, "veuillez</w>": 3878, "expropri": 40438, "plagi": 47260, "install\u00e9e</w>": 6852, "chapelure</w>": 41448, "globine</w>": 50211, "\u5ae6": 60239, "disparus</w>": 12781, "\u9d60": 66738, "prolong\u00e9s</w>": 45426, "\u5b57": 51620, "\u1a06": 61492, "rassemblant</w>": 20440, "\u97b2": 66602, "atte": 25121, "apt</w>": 44242, "\u6708": 51306, "mon\u00e9g": 47056, "\u3147</w>": 55793, "assy": 31867, "\u6483": 55564, "s\u00e9ch\u00e9e</w>": 36238, "rames</w>": 23529, "formelles</w>": 28791, "\u05be</w>": 51661, "\u0119": 36489, "r\u00e9compens\u00e9s</w>": 26207, "berlioz</w>": 46331, "\u6b63</w>": 52138, "wis": 20944, "ascendance</w>": 35761, "shoo": 37972, "142</w>": 23990, "admettre</w>": 8278, "r\u00e9gularit\u00e9</w>": 15814, "accr\u00e9dit\u00e9s</w>": 44157, "posait</w>": 17041, "concentr\u00e9</w>": 8793, "t\u00e9mis": 48977, "\u00e9gou": 48667, "scrat": 49537, "talents</w>": 5568, "\u8c9d</w>": 58573, "hawaii</w>": 43027, "d\u00e9tach\u00e9</w>": 22872, "\u9886</w>": 66625, "\u7642": 62413, "califat</w>": 37562, "eet</w>": 45374, "\u068d": 61246, "admir": 33542, "\u10d6": 51678, "death</w>": 17771, "marquage</w>": 15112, "fassiez</w>": 39389, "\u6998</w>": 65201, "\u7d30": 55905, "\u7b4b": 57745, "\u00d7": 53874, "distri": 47837, "envisag\u00e9</w>": 10888, "profil\u00e9</w>": 43092, "homme</w>": 185, "\u55a7": 64678, "\u5742</w>": 54052, "ek</w>": 6626, "magi": 42530, "\u02a6": 54785, "jacobins</w>": 43358, "\u0e2d</w>": 53898, "poli</w>": 13115, "tav": 24083, "l\u02bc": 40695, "ationnels</w>": 29877, "\u8206</w>": 62627, "cair</w>": 50189, "dam": 4142, "\u1fe4</w>": 61566, "homog\u00e9n\u00e9it\u00e9</w>": 28674, "age": 11857, "gri\u00e8vement</w>": 19114, "tol\u00e9": 15466, "histoire</w>": 244, "ferm\u00e9s</w>": 9016, "\u736c": 62371, "\ufe90</w>": 61086, "convictions</w>": 10487, "j\u00e9": 18540, "\u04a1</w>": 54971, "\u68cd</w>": 57681, "puissance</w>": 1174, "lay": 18183, "valid\u00e9es</w>": 36386, "mandat": 47123, "pill\u00e9s</w>": 47622, "pr\u00e9pa</w>": 29354, "genre</w>": 739, "sivit\u00e9</w>": 24498, "bre.": 34411, "boucles</w>": 10859, "20h": 26137, "28": 8542, "\u62f1": 62087, "rose</w>": 2263, "sympathie</w>": 11792, "\ud835\udc5d</w>": 52165, "quizz</w>": 45025, "euronext</w>": 40149, "\u0b92": 63738, "quantit\u00e9</w>": 1520, "nourris</w>": 20626, "d\u00e9poser</w>": 4208, "\u701a": 65405, "audacieux</w>": 17188, "aker</w>": 24849, "minutieux</w>": 31213, "foncier</w>": 14044, "\u8f36</w>": 66343, "arriveront</w>": 30078, "tridimensionn": 27327, "isseur</w>": 13052, "complai": 29003, "\u026e</w>": 58795, "dins</w>": 22706, "ocean</w>": 29076, "multipli\u00e9s</w>": 30596, "agn\u00e9": 47165, "och</w>": 24908, "\u1fe0": 53603, "\u5bfc": 55057, "po\u00e9tiques</w>": 20772, "indemnis": 36189, "\u7d0d": 53966, "pr\u00e9ten": 21155, "burundi</w>": 14721, "hm</w>": 26709, "timor-leste</w>": 41417, "massachus": 50510, "\u52b2": 61811, "remy</w>": 39986, "m\u00e9len": 49304, "r\u00e9guliers</w>": 9000, "modestement</w>": 34991, "tarbes</w>": 35741, "\u00e9duc": 42194, "acad": 36327, "privil\u00e9gi\u00e9</w>": 8699, "\u92d2": 62906, "gallo</w>": 44854, "faire-": 32845, "booking</w>": 39689, "\u4e53</w>": 58146, "flexibilit\u00e9</w>": 9969, "franchissant</w>": 45756, "\u0153urs</w>": 48833, "fal</w>": 46309, "ni\u00e7ois</w>": 27110, "par\u00e9s</w>": 37211, "cloutier</w>": 34573, "traduites</w>": 33120, "payent</w>": 24602, "\u00e9o</w>": 47664, "toc": 33654, "cb": 43024, "\u00e9change</w>": 1829, "funding</w>": 48327, "166</w>": 25017, "ghet": 29384, "plaques</w>": 5946, "\u4ec1": 51568, "susmentionn\u00e9s</w>": 36912, "\u9791": 66597, "1965</w>": 9294, "pendant</w>": 191, "\u1349</w>": 61420, "rochefort</w>": 25428, "uz": 34776, "commerciales</w>": 3919, "traitera</w>": 45784, "\u651d</w>": 62134, "\u9a8a": 60921, "\u996d": 63006, "\u0db9</w>": 61369, "bonus</w>": 5749, "\u2c37</w>": 61633, "vallon</w>": 25177, "ambitionne</w>": 35801, "\uc784</w>": 56852, "messieurs</w>": 6199, "\u09aa</w>": 54797, "deviendront</w>": 20142, "qq": 33133, "lud": 43231, ".voir</w>": 19447, "\u0e87": 52265, "patriarcat</w>": 39555, "chief</w>": 25522, "venus</w>": 3122, "paroles</w>": 2989, "us\u00e9s</w>": 41662, "ex\u00e9cutoire</w>": 40045, "\u5ea7": 53549, "ched</w>": 34102, "mois</w>": 180, "\u592a</w>": 53211, "intercep": 25158, "pesc</w>": 35892, "\ub7c9</w>": 56839, "ceuse</w>": 30477, "\u5b83": 57610, "collusion</w>": 31605, "\u85e9</w>": 52567, "anc\u00e9es</w>": 45210, "blois</w>": 20520, "trouvent</w>": 2295, "invoquer</w>": 20172, "pr\u00e9sid\u00e9e</w>": 16429, "cesser</w>": 7472, "\u7fd2": 54903, "amplifie</w>": 40000, "penderie</w>": 43976, "portiques</w>": 46527, "\u7531</w>": 54343, "osseux</w>": 37571, "psychiatriques</w>": 26114, "pou": 2787, "institutionn": 21801, "\u00e9ventuellement</w>": 4215, "escapades</w>": 34249, "\uc388": 67078, "mod\u00e9": 13492, "support\u00e9e</w>": 44658, "\u00e9co": 7817, "ts.les</w>": 48641, "raconte-t-il</w>": 39878, "sek</w>": 42715, "\u5283</w>": 60146, "\u70bd</w>": 65427, "fourneaux</w>": 27094, "authentification</w>": 16659, "sydney</w>": 14965, "op\u00e9r\u00e9s</w>": 30912, "pyr\u00e9n\u00e9es</w>": 10710, "bras</w>": 1423, "\u04a9</w>": 57372, "margar": 25613, "forfaits</w>": 17554, "a'</w>": 11810, "psy": 26737, "formule</w>": 2367, "ations.": 28369, "\u8fed</w>": 59546, "incluant</w>": 6257, "manes</w>": 47393, "generique</w>": 28732, "retournent</w>": 26344, "impressions</w>": 9870, "shin": 13978, "\u05e8": 49823, "inform\u00e9e</w>": 20650, "andrea</w>": 19357, "slam</w>": 36440, "instan": 21109, "\u8fb2": 53983, "apte</w>": 13737, "\u00e9": 653, "tranches</w>": 8130, "britney</w>": 39579, "spoiler</w>": 26170, "exprime</w>": 5557, "relo": 27060, "\u52b3": 59060, "r\u00e9pr\u00e9hen": 38911, "entrep\u00f4t</w>": 16168, "\u20a2</w>": 57486, "artificielles</w>": 25128, "\u9be8": 63047, "justifiant</w>": 21362, "exon\u00e9r\u00e9s</w>": 46230, "\uc628": 55672, "renouer</w>": 17799, "d\u00e9sh\u00e9ri": 46357, "agriculteurs</w>": 5696, "\u00e9jection</w>": 46818, "souples</w>": 14906, "dois-je</w>": 20764, "\u6c3e": 59282, "illier</w>": 31794, "limit\u00e9</w>": 4593, "\u8cbf": 57815, "monsanto</w>": 31781, "miti": 21000, "dessine</w>": 11913, "gon": 4311, "toshiba</w>": 43514, "sp\u00e9ciale</w>": 3024, "cienne</w>": 11619, "\u30d0": 51096, "\u8766": 58536, "ninja</w>": 27384, "\u2c68": 61660, "\u80a5</w>": 57218, "fondre</w>": 8495, "\u0452": 51540, "\u1991": 64070, "incon": 20070, "l\u00e9gendaires</w>": 31835, "brutalit\u00e9</w>": 22830, "pio": 32468, "vod": 49004, "r\u00e9pondront</w>": 39881, "royaliste</w>": 44889, "math\u00e9": 42095, "camus</w>": 23120, "attente</w>": 2884, "\u00e9meutes</w>": 15483, "ibrahimo": 49866, "d\u00e9lice</w>": 21686, "\ud835\udf03</w>": 56010, "college</w>": 14071, "\u311b": 64432, "t\u00e9ro": 26844, "libraire</w>": 23869, "\u817e": 57220, "individuels</w>": 7249, "\u51cc</w>": 64554, "\u0272": 49872, "liant</w>": 13465, "boh": 27669, "sport": 41184, "hubert</w>": 11953, "tron\u00e7on</w>": 19176, "ifrs</w>": 41927, "expr\u00e8s</w>": 19070, "battre</w>": 3445, "chauffer</w>": 8237, "irr\u00e9": 12939, "\u0902</w>": 61281, "\u30bc</w>": 58129, "\ub5b3": 66976, "accentu\u00e9e</w>": 35764, "mister</w>": 28985, "fruit\u00e9e</w>": 42892, "r\u00e9sout</w>": 27410, "licencier</w>": 36272, "\u1f06</w>": 57473, "nicholas</w>": 32917, "eder": 31691, "reconstitution</w>": 16400, "\u9081</w>": 66393, "chiez</w>": 41193, "incessante</w>": 42325, "lag</w>": 26971, "\u020b</w>": 56022, "uk": 12250, "entor": 47192, "genevois</w>": 32000, "\u30e1</w>": 54295, "\u00e9liminer</w>": 4599, "irr\u00e9gularit\u00e9s</w>": 20116, "\uc810</w>": 57324, "outsi": 34577, "trig": 43552, "simp": 48619, "semblant</w>": 10103, "planes</w>": 39877, "inscrites</w>": 12446, "impressionn\u00e9</w>": 19737, "vitale</w>": 16035, "7.1</w>": 32300, "assaut</w>": 7470, "adversit\u00e9</w>": 36929, "stipul": 19304, "tentaient</w>": 30473, "docs</w>": 38325, "\u7ea2": 51723, "\u65d2</w>": 65098, "nouveau-n\u00e9s</w>": 39474, "felici": 41074, "efficience</w>": 20000, "successeurs</w>": 21348, "anou": 35975, "\u6750</w>": 57127, "guir": 47280, "sant\u00e9un</w>": 35030, "u": 522, "\u0242</w>": 53584, "culmin": 30287, "prai": 36566, "volent</w>": 24081, "abel</w>": 18455, "marchandises</w>": 3525, "an\u00e9": 24901, "paiera</w>": 38211, "\u16b9": 58072, "\u9798</w>": 66599, "na\u00eff</w>": 21619, "\u00e9quival": 34836, "isseuse</w>": 45084, "pen": 2270, "impos\u00e9e</w>": 9167, "\u533a": 55512, "dialogue</w>": 2271, "aucunement</w>": 17159, "cicatr": 45731, "\u624d</w>": 53723, "\u2c39</w>": 61635, "\u5230</w>": 57034, "doirs</w>": 49215, "transformation</w>": 3156, "\u5605</w>": 64693, "able</w>": 1559, "\u00e9pingl": 30867, "gouter</w>": 41936, "insuffisances</w>": 31569, "adsor": 35901, "activiste</w>": 34670, "lieux</w>": 1156, "t\u00e9.</w>": 27473, "fr\u00e8re</w>": 1616, "credit</w>": 17473, "\u8cc0": 52763, "swap</w>": 44289, "onnaires</w>": 14363, "barra": 37444, "humili": 16236, "\u6cc4": 65281, "\u96fe": 62970, "palpi": 20866, "r\u00e9mun\u00e9r\u00e9e</w>": 45500, "terre": 39160, "eb": 28185, "fermeture</w>": 3356, "d\u00e9nombre</w>": 27652, "lacoste</w>": 37520, "mine</w>": 3562, "toits</w>": 14062, "major\u00e9</w>": 39684, "ine-": 16423, "yons</w>": 45302, "\u00e9quiper</w>": 14586, "notice</w>": 6733, "r\u00e9galer</w>": 26699, "d\u00e9odorants</w>": 33055, "\u5ec2": 62008, "viller": 37945, "interminable</w>": 26001, "\u3117</w>": 64427, "autonome</w>": 3973, "\uc36c</w>": 67077, "onnaire</w>": 15520, "am\u00e9nag": 29933, "parvenue</w>": 18810, "\ud835\udfcf": 54567, "curtis</w>": 36960, "\u00e9levant</w>": 22351, "utc-": 35472, "rpr</w>": 19465, "ent.</w>": 46233, "great</w>": 22691, "\u00e9lans</w>": 35928, "\u574a</w>": 54660, "\ud835\udc79": 67498, "sainte-anne</w>": 36425, "d\u00e9passant</w>": 12089, "\u6dbc</w>": 58391, "\ud835\udfd4": 67530, "perdent</w>": 10359, "accos": 46041, "inqui\u00e8tent</w>": 19774, "\u8056": 51891, "encombran": 47377, "argenteuil</w>": 40545, "persuad\u00e9e</w>": 27619, "lunaire</w>": 19294, "gobain</w>": 46102, "r\u00e9glement\u00e9s</w>": 32796, "trouv\u00e9d\u00e9paysant</w>": 37932, "moutier</w>": 37636, "exploitables</w>": 45366, "\u5f37</w>": 54477, "achev\u00e9</w>": 10076, "\u2466</w>": 54442, "\uc601": 51691, "exu": 25465, "\u53d8": 58207, "inclut</w>": 7245, "\u224d</w>": 64296, "town": 41692, "coura": 47559, "attrape</w>": 29046, "enfournez</w>": 34788, "5,7</w>": 27002, "d\u00e9crochage</w>": 28813, "aiderait</w>": 35186, "\u4ec4": 64468, "apres</w>": 9092, "\u266f</w>": 50502, "palestini": 47039, "d\u00e9sarmer</w>": 46391, "respire</w>": 19324, "\u00e9vacu\u00e9</w>": 23668, "parure</w>": 31265, "chem</w>": 35078, "pr\u00eate</w>": 3836, "c\u00f4me</w>": 46000, "cr\u00e8me</w>": 2692, "sp\u00e9cifi": 25305, "hams</w>": 42420, "hadi</w>": 43589, "chutes</w>": 9523, "\u84c4</w>": 62672, "dream": 21827, "bris</w>": 15123, "pourrait-elle</w>": 44421, "innovations</w>": 8310, "prostitu\u00e9e</w>": 27257, "r\u00e9p\u00e9tition</w>": 8581, "\u305d": 52891, "jamie</w>": 23749, "\u5fbd</w>": 56605, "gal": 2826, "\u1b27": 64097, "par-dessus</w>": 11266, "coup-": 38505, "kok</w>": 48964, "afi": 36454, "\u03af": 34318, "appuyez</w>": 12174, "guad": 36699, "rennais</w>": 32658, "bouchon</w>": 12526, "\u8d3d</w>": 66297, "soumise</w>": 6870, "ermite</w>": 36157, "visionner</w>": 17909, "0-3</w>": 46211, "1960</w>": 5097, "\u9e1b": 66746, "search</w>": 25828, "traduire</w>": 7453, "\u04b7</w>": 59794, "oubli\u00e9s</w>": 16616, "\u0293</w>": 57362, "corbeaux</w>": 41908, "carcan</w>": 44447, "package</w>": 30740, "farfel": 28660, "sauter</w>": 7117, "r\u00e8rent</w>": 15188, "combin\u00e9s</w>": 19119, "\u1d4f</w>": 64157, "geage</w>": 41705, "photoshop</w>": 21785, "t\u00ea": 17929, "myl\u00e8ne</w>": 40143, "\u548c</w>": 51885, "\u90c1</w>": 60834, "pr\u00e9voyaient</w>": 42752, "ites</w>": 11675, "stades</w>": 12102, "prenais</w>": 30040, "d\u00e9truite</w>": 14013, "partenariats</w>": 6592, "panop": 49713, "\u04df</w>": 61205, "objectivement</w>": 26880, "seconde</w>": 869, "cognitive</w>": 28553, "vaisseaux</w>": 10094, "mesure</w>": 418, "arai": 49612, "apart</w>": 47544, "envol\u00e9e</w>": 26545, "\u05e6": 50622, "\u0bae</w>": 52097, "\u0267</w>": 59764, "m\u00e9daill\u00e9</w>": 31738, "cheux</w>": 39371, "\u00e9tudie</w>": 8129, "roller</w>": 36363, "\u1271</w>": 56446, "laporte</w>": 32830, "\u2c97</w>": 61668, "luxueux</w>": 23703, "\u5348": 54308, "\u06f0": 54120, "gr\u00eale</w>": 26999, "mastercard</w>": 22825, "\ud835\udc93": 67513, "pollution</w>": 4488, "kelly</w>": 16660, "among</w>": 39392, "\u9190": 59563, "fou</w>": 3801, "institutionnelles</w>": 16244, "ti</w>": 1951, "\u96bb</w>": 60884, "250.000</w>": 44620, "bateau</w>": 3364, "allo": 13897, "\u10d8": 50203, "hup": 35020, "fonde</w>": 7592, "af</w>": 8531, "avoisinant</w>": 42234, "current</w>": 42069, "requ\u00e9rants</w>": 19220, "\u5144": 55268, "euro</w>": 1597, "\ud2f4": 63309, "\u5433": 51736, "r\u00e9vol": 14904, "\u00e9l\u00e8ve</w>": 2285, "ette.": 45546, "\u0931</w>": 63650, "most</w>": 18967, "omnie</w>": 50286, "\u2abb</w>": 64365, "\u8a41</w>": 66189, "pfi": 48816, "allou\u00e9s</w>": 21368, "tromp\u00e9s</w>": 34793, "d\u00e9velopp": 14186, "\ud835\udc84": 63437, "play</w>": 9026, "f\u00e9lici": 16794, "budget</w>": 1198, "fond\u00e9es</w>": 10432, "monn": 20179, "stade</w>": 1867, "\ub825": 61006, "\u834f": 66004, "r\u00e9gation</w>": 50191, "valablement</w>": 45427, "\u0d1f": 55208, "\u89c9</w>": 59488, "nagu": 47566, "x-men</w>": 33500, "\u2119</w>": 57488, "\u0aae": 55201, "s\u00e9rum</w>": 22203, "contamin\u00e9e</w>": 39401, "comptait</w>": 6214, "instructeurs</w>": 38136, "perfectionnement</w>": 13495, "480</w>": 23614, "0,0</w>": 44377, "e.s</w>": 35284, "\u03dd</w>": 50927, "demand\u00e9es</w>": 18075, "rappel\u00e9s</w>": 46789, "\u9079</w>": 66391, "lectures</w>": 9386, "cafe": 41456, "r\u00e9gulation</w>": 5698, "cerveaux</w>": 25883, "grande</w>": 195, "dassault</w>": 25470, "g\u00e9ographique</w>": 4893, "lim": 10875, "oi</w>": 10872, "gtx</w>": 40488, "blind\u00e9</w>": 34363, "graines</w>": 6144, "\u92ae</w>": 66460, "gageons</w>": 42668, "haut-commissaire</w>": 30033, "elegance</w>": 38944, "\uc1c4</w>": 67062, "beaux-arts</w>": 10291, "19h": 30716, "stadt</w>": 20890, "rurales</w>": 8248, "episode</w>": 33161, "intergouvernementales</w>": 26802, "9,2</w>": 41905, "try</w>": 13090, "\u00e9tiques</w>": 33825, "refinancement</w>": 37930, "int\u00e9ress\u00e9es</w>": 11422, "\u6137": 64975, "\u00e9valuations</w>": 7239, "karen</w>": 26897, "cess</w>": 37570, "martiale</w>": 37596, "supersti": 29858, "\u130a": 55223, "pdc</w>": 45405, "saurons</w>": 37396, "recommanderais</w>": 34707, "aqmi</w>": 35819, "fractu": 31017, "d\u00e9gag\u00e9es</w>": 41611, "proc\u00e8s-verbal</w>": 15080, "trouv\u00e9poignant</w>": 37941, "donn\u00e9</w>": 586, "\u8bad</w>": 66227, "950</w>": 27765, "\u9646": 53757, "\u063a": 50625, "\u52dd</w>": 53209, "\u6355": 57652, "onnerie</w>": 29171, "primaires</w>": 6327, "\u7624": 65602, "intimement</w>": 20414, "mika</w>": 43760, "\u7c98</w>": 62496, "enclen": 20982, "nuit": 41555, "empirique</w>": 25841, "h\u00e9misph\u00e8re</w>": 22444, "dictateurs</w>": 39081, "\ufe97": 63338, "moments</w>": 2321, "\u4f96</w>": 64489, "\u7ecd": 55366, "marc-": 26130, "soulev\u00e9</w>": 14492, "quint</w>": 36141, "30-": 15986, "torial</w>": 37114, "int\u00e9gr\u00e9</w>": 3826, "acc\u00e9l\u00e9r\u00e9e</w>": 21287, "f\u0153tus</w>": 31751, "\u3060": 52065, "\u0728": 56408, "gale</w>": 19065, "\u66c4</w>": 59241, "\u504f</w>": 58169, "cousine</w>": 16273, "\u767b": 53158, "saviez-vous</w>": 33173, "gazo": 36217, "surgel\u00e9s</w>": 37787, "tremble</w>": 32835, "contraste</w>": 7900, "jardin": 15329, "skieurs</w>": 27415, "\u51e0": 60128, "xi\u00e8me</w>": 47953, "doroth": 47417, "\u519c": 54156, "fume</w>": 28115, "marx": 47608, "\u76ae</w>": 54346, "2h": 38540, "malheureux</w>": 6982, "judici": 29585, "disparait</w>": 36765, "porta</w>": 15921, "hyd": 49009, "celui</w>": 269, "-5</w>": 25154, "sib\u00e9rie</w>": 24319, "contes": 14622, "\uc120": 51984, "in\u00e9dits</w>": 14646, "que": 2950, "153</w>": 24341, "attendez</w>": 10489, "manuscrite</w>": 44060, "\ud0dd": 58742, "proc\u00e8de</w>": 10256, "\u73e6</w>": 65526, "\u5feb": 53719, "\u9aea": 58667, "rembourse</w>": 35194, "vence</w>": 47721, "\u52e4</w>": 57038, "\u0a9c": 57395, "ic</w>": 6307, "copines</w>": 16068, "irent</w>": 42347, "ressembl": 20297, "\u5954</w>": 60216, "assomption</w>": 33534, "\u00e9branl\u00e9</w>": 34845, "compenser</w>": 8853, "\u7f70": 62560, "\u5751</w>": 59094, "d\u00e9roul": 24221, "gols</w>": 49183, "com\u00e9dienne</w>": 15645, "affectations</w>": 38510, "ressuscit\u00e9</w>": 28307, "sp\u00e9culations</w>": 23634, "a\u00e9roport</w>": 2977, "riley</w>": 45121, "vince</w>": 37860, "kaz": 12691, "\u7be0</w>": 65756, "m\u00fc": 33112, "\u066d</w>": 52095, "\u029f": 58800, "fol": 9327, "rumeur</w>": 11623, "\u1209</w>": 58044, "tionner</w>": 13552, "notre-dame-des-landes</w>": 46151, "prescri": 32164, "\u0d19</w>": 63774, "gu\u00e9rill": 40798, "\u673d</w>": 60394, "hou": 3377, "\u0b2a</w>": 63727, "have</w>": 7012, "serial</w>": 40745, "garri": 26837, "persuad\u00e9s</w>": 27662, "alias</w>": 13693, "bury</w>": 13805, "ahu": 28059, "impr\u00e8": 48685, "gorges</w>": 15163, "manquement</w>": 21270, "d\u00e9chir\u00e9</w>": 25636, "inh\u00e9rents</w>": 30443, "auriez</w>": 13650, "r\u00e9flexi": 30314, "disparaissent</w>": 13986, "accueil": 33829, "\u7b2c</w>": 55113, "germes</w>": 27234, "\u1273</w>": 55480, "ted</w>": 4247, "\ube59": 61026, "arri": 7131, "\u62d4</w>": 65022, "communales</w>": 22356, "2002-": 31687, "feraient</w>": 14549, "comportera</w>": 41635, "\u11ea</w>": 63838, "r\u00e9servations</w>": 8634, "m\u00e9tropolitain</w>": 25956, "benz": 26704, "\u7b11</w>": 57200, "brunet</w>": 39095, "dial": 27558, "\ub801": 63210, "\u0562": 51815, "ind\u00fbment</w>": 42590, "ako</w>": 35263, "75</w>": 2207, "ien</w>": 12583, "souffrances</w>": 9231, "\u00f4mes</w>": 24444, "acco": 29777, "\u9061</w>": 66386, "travaill\u00e9e</w>": 29084, "factu": 16091, "\u5176</w>": 56533, "\u67f4": 54686, "biennal</w>": 16830, "r\u00e9acteur</w>": 12006, "ments</w>": 6810, "\u9a43": 60914, "\u0f42</w>": 52289, "pr\u00e9sidente</w>": 3720, "pertinemment</w>": 39303, "\u65af": 52963, "\u0d34": 63780, "rond-": 50024, "eel": 48837, "pics</w>": 16919, "ecteur</w>": 39931, "g\u00e9om\u00e9triques</w>": 22111, "\u4f3c": 58159, "funt</w>": 49783, "flames</w>": 44957, "\u14f2": 61447, "structur\u00e9</w>": 17131, "explique-t-elle</w>": 27392, "\u76fe</w>": 57185, "\u00f2</w>": 43805, "\ud835\udc49": 55687, "psych\u00e9d\u00e9li": 48457, "\u6850</w>": 56221, "go\u00fbt</w>": 1603, "euc</w>": 49299, "\u725d</w>": 65472, "\u8e2a</w>": 66325, "naturel</w>": 1825, "h\u00e9l": 38339, "\u0161</w>": 31663, "divins</w>": 38684, "\u8d73": 66305, "extraordinairement</w>": 38877, "st\u00e9r\u00e9o": 38427, "tence</w>": 25950, "ners</w>": 24323, "primaut\u00e9</w>": 25633, "joan</w>": 27472, "\u563b": 64699, "pill": 12857, "jean-": 4772, "\u30fb</w>": 49535, "affiliation</w>": 22051, "moquette</w>": 33298, "apprend": 37321, "\u00e9dit\u00e9s</w>": 28966, "hydraulique</w>": 11438, "\u6e08": 56666, "remodel": 33035, "\u00e9puise</w>": 41303, "hav": 13349, "legs</w>": 26787, "\u30ae</w>": 55784, "m\u00e9caniciens</w>": 41542, "\u1f05": 51237, "nent</w>": 13579, "\uff52": 52427, "grandeur</w>": 6533, "\u5175</w>": 52950, "triche</w>": 40926, "para\u00eet</w>": 2997, "chimiquement</w>": 42018, "brillants</w>": 17349, "chem": 9872, "\u6ede": 65359, "\u5e74</w>": 51571, "continentales</w>": 40362, "spectrale</w>": 45195, "gr\u00e8ves</w>": 16797, "pr</w>": 6700, "lu": 1072, "qualit\u00e9": 43365, "tentes</w>": 13266, "confusion</w>": 7040, "ceci</w>": 1362, "pr\u00e9sage</w>": 42463, "gi": 1206, "loy": 20849, "\u9b91": 57289, "implant\u00e9es</w>": 26795, "legi": 46806, "coiff": 12693, "\u5deb": 55840, "casse</w>": 7569, "spl": 39104, "frey</w>": 41278, "balais</w>": 41019, "districts</w>": 17699, "cnil</w>": 25852, "\u90e4": 66422, "pata": 29236, "suivez-": 42212, "diver": 13470, "amster": 48199, "\u8165": 62609, "grappes</w>": 27538, "connai": 22350, "\u01d0</w>": 50505, "souffrent</w>": 9352, "\u8f44</w>": 62825, "imminent</w>": 29771, "\u7cc5": 65779, "surnaturel</w>": 32586, "ecol": 40843, "g.": 8993, "dura": 34371, "vermi": 38404, "pr\u00e9parer</w>": 2016, "20h30</w>": 20233, "1854</w>": 30449, "\u6e9d": 58398, "grille-pain</w>": 40079, "chemin</w>": 1097, "\u5747</w>": 55043, "seigneuri": 33373, "\u72e2": 65489, "demi-journ\u00e9e</w>": 34188, "jump</w>": 40475, "\u5077": 58171, "d\u00e9sormais</w>": 724, "paysage</w>": 3531, "\u0db8</w>": 59888, "vili</w>": 35883, "pouvons</w>": 2222, "v\u00e9cut</w>": 23212, "\u91ab": 55951, "r\u00e9examen</w>": 23532, "\u55b5</w>": 60187, "collector</w>": 32789, "refl\u00e9": 43413, "\u852d": 60722, "brillant</w>": 7068, "\u96c4": 52257, "\u7a3d": 57743, "asiatique</w>": 10144, "souverainet\u00e9</w>": 6770, "\u6d4e</w>": 62265, "\u12aa</w>": 63868, "\u6912</w>": 56641, "splendide</w>": 13083, "mon\u00e9gasque</w>": 33786, "propri\u00e9t\u00e9s</w>": 3574, "wend": 34572, "\u120c</w>": 56076, "\u9bc9</w>": 59612, "secr\u00e8": 49876, "ethno": 18385, "\u6ce2": 52493, "alban</w>": 45413, "ciles</w>": 40044, "carlo</w>": 17222, "rod": 28128, "bulaires</w>": 37603, "\u7947</w>": 65689, "testi": 29347, "securite</w>": 27592, "lakers</w>": 44605, "\uab4d</w>": 66866, "d\u00e9tru": 17320, "aignan</w>": 47927, "idylle</w>": 43317, "chrono</w>": 17863, "\u30c4": 51774, "craignez</w>": 40463, "\u66e0</w>": 65131, "wars</w>": 12408, "commercialise</w>": 28174, "rements</w>": 14143, "\u00ce": 51025, "ill\u00e9gal</w>": 12141, "\u16a3": 63971, "immen": 46814, "\u745e": 53015, "entra\u00een\u00e9s</w>": 24320, "unis": 19985, "vip</w>": 22227, "combiner</w>": 14266, "\u0529</w>": 63568, "pensa</w>": 28715, "couillard</w>": 15189, "chiffr\u00e9es</w>": 35094, "\u00f6n": 31130, "montait</w>": 22391, "gross": 15900, "\u6046": 57641, "jetons</w>": 24857, "int</w>": 10926, "traduisant</w>": 31813, "albi": 22615, "\u54d2</w>": 64644, "\u7a40": 59381, "\u866f": 66094, "a320</w>": 44378, "ecole</w>": 6494, "pr\u00e9sentation</w>": 1469, "juger</w>": 5190, "activent</w>": 37251, "annuaires</w>": 37389, "sally</w>": 41895, "oner</w>": 31984, "m\u00e9tropolitaine</w>": 12004, "\u00e9s</w>": 431, "hei": 14420, "\u00fe</w>": 50067, "attaqu\u00e9e</w>": 18933, "retouches</w>": 34434, "partir</w>": 300, "irr\u00e9guli\u00e8re</w>": 19920, "d\u00e9clin</w>": 8590, "disney</w>": 7161, "hyper-": 24878, "\u8c5a": 62779, "invi": 12953, "tourno": 47125, "\u9a30": 66666, "chen": 7678, "articles</w>": 958, "plombier</w>": 13757, "messie</w>": 24803, "assigner</w>": 35953, "obtenus</w>": 5553, "apporter</w>": 1628, "eug\u00e9nie</w>": 36316, "\u00ae</w>": 53339, "voyagez</w>": 42365, "\u6a58</w>": 62226, "gaulliste</w>": 44166, "diamants</w>": 13954, "contrat</w>": 1008, "rena\u00ee": 41189, "br\u00e9": 17299, "griller</w>": 27301, "\u1271": 59909, "sony</w>": 8001, "\u0580</w>": 51607, "endroits</w>": 3594, "\u0e40": 50648, "vesti": 39243, "\u0d07": 63769, "\u84cb": 55379, "tchat</w>": 40716, "r\u00e9vis\u00e9es</w>": 37073, "n-": 5966, "\u10da</w>": 54019, "ex-pr\u00e9sident</w>": 21356, "tiel</w>": 29462, "vaient</w>": 20342, "battus</w>": 10621, "\u90a3": 51982, "pun": 9163, "normative</w>": 46674, "sp": 6012, "nuque</w>": 21131, "\u6700": 52523, "\u59be</w>": 61936, "\u58a9": 60205, "patern": 32254, "\u212c</w>": 54441, "soulign": 16938, "aromath\u00e9": 50086, "exc\u00e8s</w>": 5837, "punitions</w>": 46409, "sports</w>": 3586, "\u5cf4</w>": 64864, "artisanale</w>": 17483, "baiss\u00e9</w>": 9133, "\u00e9veill": 19457, "aum\u00f4ne</w>": 39626, "am\u00e9ricano-": 38223, "concerts</w>": 4875, "estimations</w>": 7625, "plant</w>": 26796, "\u0665": 54589, "\u8b0e": 57239, "\u062a</w>": 50436, "individualiste</w>": 46036, "coin</w>": 2293, "\u5288": 64573, "rai": 4726, "relax</w>": 44033, "\u315e</w>": 59016, "\u2c87": 60038, "\u854a</w>": 66065, "fire</w>": 13917, "\u60b2</w>": 57643, "associent</w>": 23556, "meu": 7726, "sauv": 18531, "gadgets</w>": 27646, "distribution</w>": 1913, "scrupuleux</w>": 41340, "consolid": 48116, "sugg\u00e9rer</w>": 19048, "\u01c9": 56381, "\uff9f</w>": 53106, "myst\u00e8re</w>": 5981, "\u00e9crou": 16112, "\u7e55</w>": 62536, "ado</w>": 7218, "gier</w>": 19606, "\u671b": 52905, "turquie</w>": 3261, "gyn\u00e9cologue</w>": 40346, "wikip\u00e9dia</w>": 17914, "pr\u00e9parez</w>": 20698, "gouvernementaux</w>": 10743, "\ubd80</w>": 53174, "invasion</w>": 8469, "\u535e": 61833, "\u16ea": 64031, "\u9df2": 63061, "\u03c8</w>": 50142, "agr\u00e9ments</w>": 47209, "s\u00fbrement</w>": 4644, "1856</w>": 31091, "antonio</w>": 9664, "visco": 48601, "rhume</w>": 30750, "tampa</w>": 33118, "arr\u00eat\u00e9es</w>": 14988, "\u0c66</w>": 63753, "conservent</w>": 15665, "b\u00e2tard</w>": 46016, "\u96b1": 56790, "\u00e9parpill\u00e9s</w>": 46900, "douceur</w>": 4550, "ophtalmol": 43052, "free": 25547, "brit\u00e9</w>": 48060, "orient\u00e9s</w>": 19667, "trente-deux</w>": 42687, "\u1ee1</w>": 55489, "adopt\u00e9e</w>": 5280, "\u5473</w>": 54655, "levage</w>": 31092, "christ</w>": 3568, "pouvais</w>": 6161, "yme</w>": 35926, "poly\u00e9thyl\u00e8ne</w>": 35545, "\u6600</w>": 62152, "s\u00e9vit</w>": 26341, "thann</w>": 42850, "\u7c9f": 59398, "cons\u00e9qu": 25616, "servitude</w>": 24597, "intern": 36980, "kane</w>": 22898, "bron</w>": 22483, "retrouvaient</w>": 43540, "\u04d1": 63565, "mainmise</w>": 37428, "\u66fd</w>": 62173, "pr\u00e8": 47334, "\u8c79</w>": 59511, "coop\u00e9rer</w>": 13360, "curit\u00e9</w>": 48114, "\ud835\udc46": 67488, "d\u00e9classement</w>": 42731, "croisi": 41159, "\u6cf5</w>": 65290, "modifications</w>": 3402, "\u7c3d": 65761, "localiser</w>": 13176, "slow</w>": 34097, "scopie</w>": 44855, "d\u00e9mographique</w>": 10348, "entra\u00een\u00e9e</w>": 28984, "\u7957": 65693, "p\u00e9n\u00e9": 26141, "\u9320": 66467, "amen\u00e9e</w>": 17922, "consistent</w>": 18160, "pr\u00e9f\u00e9r\u00e9es</w>": 15624, "\u87ba": 59474, "pronon\u00e7a</w>": 37231, "t\u00e9n\u00e8bres</w>": 12005, "ferroviaires</w>": 17583, "missionnaires</w>": 16274, "hommage</w>": 2988, "\uab32</w>": 66839, "ouss": 23800, "sup": 6779, "anciers</w>": 19666, "\uff4e</w>": 53769, "qualite</w>": 31253, "meux</w>": 41304, "hebdo</w>": 13936, "\u9813</w>": 60903, "\u7c89": 57206, "podiums</w>": 31732, "entendue</w>": 15336, "\ub178</w>": 58701, "r2</w>": 22538, "d\u00e9cision</w>": 487, "\u314e</w>": 57517, "institu": 15693, "\u0c37": 58885, "\u8ddf": 62812, "pr\u00e9senter</w>": 1422, "\ud835\udc85</w>": 54777, "crocodi": 49855, "derriere</w>": 42213, "34.": 44123, "\u5449": 59081, "\u1fb1</w>": 53356, "\u9020": 52971, "bilite</w>": 25707, "dessinateurs</w>": 30112, "\u5d29": 61990, "\u00e9norme</w>": 3269, "\u95c7</w>": 62935, "apparences</w>": 15484, "phones</w>": 18950, "t\u00e9.": 7393, "\uce90": 67162, "charme</w>": 3382, "mor</w>": 36502, "doive</w>": 24170, "\u0521</w>": 61215, "cabinets</w>": 14462, "laissera</w>": 14189, "girondins</w>": 28270, "km": 8032, "paresse</w>": 31682, "django</w>": 44486, "\u8c78</w>": 59510, "\u96a0": 58642, "vitamines</w>": 11645, "id\u00e9ologies</w>": 27295, "volvo</w>": 28304, "morceaux</w>": 3080, "\u025d": 61157, "quinn</w>": 37846, "cyclable</w>": 26936, "affini": 48049, "T</w>": 50446, "marches</w>": 8146, "rec\u00e8le</w>": 27632, "songes</w>": 39078, "\u5238</w>": 55276, "\u5362</w>": 61834, "ehpad</w>": 36814, "work</w>": 17778, "\u529e</w>": 64574, "r\u00e9clame</w>": 8261, "anno</w>": 38680, "plaignent</w>": 24403, "77": 18509, "acrobatique</w>": 44445, "\u5bd3": 61969, "vag": 23488, "\u00ebs</w>": 31164, "rone</w>": 20406, "\u00e9thyl\u00e8ne</w>": 30577, "pr\u00e9visions</w>": 4872, "\u5bc2</w>": 58257, "coucher</w>": 5122, "\u7eea</w>": 60655, "lutt\u00e9</w>": 36437, "mod\u00e9r\u00e9</w>": 13871, "envi</w>": 31375, "\u0c1b": 63747, "eussent</w>": 18657, "relient</w>": 34287, "\u1e45": 50453, "mademoiselle</w>": 10529, "chinois</w>": 2269, "\u2172": 52940, "fonten": 29148, "\u533a</w>": 50236, "limateur</w>": 50833, "compo": 41798, "communicants</w>": 45801, "retrouverez</w>": 17835, "amide</w>": 26901, "bey": 24174, "m\u00e9dioc": 48206, "dosages</w>": 45888, "\u5edf": 60289, "judi": 40330, "meure</w>": 40899, "tentations</w>": 32659, "sphinx</w>": 44862, "m\u00e9diocrit\u00e9</w>": 30238, "d\u00e9funt</w>": 12790, "\u1e47": 49463, "duos</w>": 36758, "ant\u00e9rieures</w>": 11889, "\u516b</w>": 53288, "\u2d42": 60043, "tif</w>": 4587, "d\u00e9tourn": 23589, "ruissellement</w>": 43618, "lleur</w>": 28080, "cola</w>": 28671, "1880</w>": 17843, "ership</w>": 48799, "psp</w>": 24735, "tation": 17079, "vate</w>": 48659, "salutaire</w>": 25860, "elio</w>": 45162, "dirons</w>": 43014, "\u00e9tonnamment</w>": 24545, "impec": 47381, "tendons</w>": 45789, "\u669d</w>": 65120, "is-": 7972, "vom": 21477, "\ud2f8</w>": 67195, "a\u00e9ron": 47384, "maillots</w>": 23450, "expansion</w>": 5685, "m\u00e9lodique</w>": 29279, "esseurs</w>": 44593, "yaourts</w>": 33626, "chondri": 44963, "moss": 31176, "fontan": 46227, "p\u00e2tissier</w>": 31833, "reviendront</w>": 35113, "shorts</w>": 41186, "odi": 12820, "miraculeuse</w>": 39802, "\u7e61": 65819, "\u590f": 51714, "\u84ec": 55380, "\u9707": 54742, "pr\u00e9judiciable</w>": 29275, "\u00eates</w>": 811, "obam": 40652, "\u5199": 53811, "d\u00e9tec": 20833, "hir</w>": 30637, "\u79a7</w>": 58453, "\u7ee3": 57760, "ni": 921, "\u1e91</w>": 52123, "ajust\u00e9e</w>": 31060, "excluant</w>": 25205, "\u04b5</w>": 57959, "estim\u00e9s</w>": 21605, "\u309d": 60055, "\u6fc9": 65389, "\ucc3d": 53415, "sensation</w>": 5325, "\u9087</w>": 66395, "calli": 30216, "sakura</w>": 46569, "ker</w>": 4987, "gar\u00e7": 34474, "embourg</w>": 41933, "\u0ead</w>": 63814, "moto": 12564, "m\u00e9t\u00e9o-france</w>": 44233, "circonscriptions</w>": 16172, "\u8d1b</w>": 66287, "lande</w>": 24554, "\u217c": 51361, "pompi": 48625, "\u7d46</w>": 62512, "intimidation</w>": 18824, "\u659c</w>": 60374, "probi": 50167, "kru": 19345, "tet": 28832, "\u8adc</w>": 66204, "vat": 45341, "\u798f</w>": 53078, "adou": 16372, "imprim\u00e9es</w>": 24446, "euils</w>": 40077, "\u30d6</w>": 52514, "pr\u00e9avis</w>": 13486, "\u0a1f": 56909, "discrimin": 23587, "l\u00e0</w>": 204, "yv": 40603, "graffi": 49079, "jurer</w>": 37291, "ellan</w>": 38315, "atomique</w>": 12342, "\u9f9c": 57883, "livrant</w>": 28641, "onf</w>": 38337, "52-": 44626, "\u722d": 59324, "dalles</w>": 23454, "ez-vous</w>": 3386, "liver": 48518, "afp</w>": 3000, "\ufeb1</w>": 63343, "cbs</w>": 27827, "hanou": 47620, "d\u00e9marque</w>": 25674, "\u9014": 60826, "latex</w>": 25181, "\uff43</w>": 56369, "`": 54568, "pensait</w>": 7364, "haute-sa\u00f4ne</w>": 44831, "trouv\u00e9\u00e9tonnant</w>": 46631, "revenez</w>": 30034, "bishop</w>": 44882, "el-": 7063, "assassiner</w>": 24050, "destin</w>": 5085, "internet": 30151, "ega</w>": 45679, "fourra": 40523, "\u5fd8": 54183, "or\u00e9al</w>": 27291, "bl\u00e9</w>": 6250, "305</w>": 34372, "engendr\u00e9s</w>": 36676, "\u8a87": 66198, "actes</w>": 1814, "gui": 3815, "\u80de": 65916, "parce</w>": 268, "fra\u00eecheur</w>": 7948, "fillettes</w>": 29386, "draps</w>": 11995, "\u7f55</w>": 60661, "ches</w>": 3034, "patin</w>": 33616, "semis</w>": 23047, "\u6551": 54870, "ang</w>": 6271, "suicid\u00e9</w>": 40559, "bain-": 49790, "inguisme</w>": 49938, "affir": 11632, "suivent</w>": 4261, "se</w>": 49, "abbaye</w>": 6545, "\u82f1": 51583, "10000</w>": 36806, "\u1528": 54810, "\u14c0": 56461, "lis\u00e9s</w>": 26686, "jared</w>": 45600, "2002-2003</w>": 27014, "g\u00e9olocalisation</w>": 32488, "allers-retours</w>": 43323, "d\u00e9volu</w>": 27736, "officialis\u00e9</w>": 34406, "\u6a13": 55335, "angelina</w>": 35237, "sus</w>": 7057, "chahu": 45680, "sculpt\u00e9s</w>": 37770, "routi\u00e8re</w>": 9422, "\u73ea": 65528, "door</w>": 35785, "from": 26422, "g\u00e9n\u00e9rateurs</w>": 24864, "2001-": 30191, "play": 11556, "leit": 47712, "entends</w>": 8632, "galets</w>": 24566, "allen": 32288, "\u00e9chapp\u00e9</w>": 10948, "toronto</w>": 5581, "islamique</w>": 4252, "sheri": 44480, "recenser</w>": 27465, "gola</w>": 41889, "pass\u00e9</w>": 478, "avignon</w>": 11324, "\u1f37": 51187, "c\u00e9e</w>": 10986, "osit\u00e9</w>": 14426, "met": 3855, "finalement</w>": 1027, "exclusifs</w>": 21617, "\u5f69": 55549, "\u6984</w>": 60422, "distinguant</w>": 45232, "\u16bb</w>": 61464, "n\u00e9go": 49142, "astronaute</w>": 38266, "nicol": 15251, "abdomin": 28765, "\u86cb</w>": 56748, "fiscales</w>": 6928, "\uad90</w>": 66909, "\ub984</w>": 57305, "re": 189, "\ub110</w>": 58700, "bon-": 31716, "frotter</w>": 22934, "yama</w>": 36475, "dl</w>": 14654, "enca": 38234, "luxu": 36371, "v\u00e9g\u00e9taux</w>": 10600, "massacre</w>": 9440, "d\u00e9taill": 27598, "hospitaliers</w>": 18011, "gisements</w>": 22343, "atal": 43896, "pti": 46987, "rendement</w>": 3833, "\uc0e4</w>": 61030, "barbare</w>": 20343, "aor": 44029, "v\u00e9hi": 47373, "d\u00e9sint\u00e9gration</w>": 41291, "onore</w>": 37369, "agro-": 26094, "bris\u00e9</w>": 13151, "subs\u00e9qu": 24419, "m\u00e9decine</w>": 3131, "\u9589": 60871, "pieds</w>": 1524, "\u5a25": 57065, "pinc\u00e9e</w>": 20863, "\u8150": 55912, "ishi</w>": 48277, "de-t-il</w>": 45901, "atterri</w>": 33514, "coiffure</w>": 11948, "milliardaires</w>": 38547, "\u8006</w>": 62573, "\u19c1": 64078, "m\u00e9ga</w>": 32142, "expos": 30154, "humili\u00e9</w>": 39351, "gomez</w>": 28443, "-50</w>": 38606, "comp\u00e8res</w>": 33340, "accordait</w>": 35884, "exclamations</w>": 44323, "appor": 19825, "refroidissement</w>": 8155, "eus</w>": 9577, "\u80dc": 51281, "sont</w>": 57, "ker": 4169, "cend": 28393, "beaut": 48879, "wurtemberg</w>": 41703, "regroupe</w>": 6576, "\u90fd": 51252, "\u5f62</w>": 53069, "inep": 40250, "deter": 47316, "tles</w>": 36953, "g\u00e9lules</w>": 39657, "got": 29902, "authenticit\u00e9</w>": 10917, "onnaient</w>": 33640, "inuit</w>": 41594, "coup\u00e9es</w>": 18099, "xo</w>": 40034, "pellerin</w>": 35552, "\u00e9conome</w>": 32873, "wells</w>": 25960, "wash": 38097, "galil\u00e9e</w>": 29195, "touraine</w>": 19329, "lation</w>": 12451, "consoler</w>": 23861, "nant</w>": 12724, "35</w>": 1457, "sainte</w>": 4378, "\u9a4d": 66669, "poing</w>": 11680, "oches</w>": 33535, "aid\u00e9e</w>": 22906, "estimati": 48006, "privil\u00e9gi\u00e9e</w>": 14227, "von": 26080, "sauv\u00e9e</w>": 26814, "\u0987": 52434, "croustill": 26501, "\u0d2a</w>": 63777, "\ufeee": 58763, "valoris\u00e9</w>": 32676, "brandon</w>": 31318, "copy": 47329, "colori": 35916, "zay": 33061, "amen\u00e9s</w>": 15043, "\u00e9vit\u00e9e</w>": 44433, "\u958e</w>": 66520, "devancer</w>": 41847, "gust": 18318, "humoristiques</w>": 41378, "ria</w>": 12503, "tanins</w>": 20399, "harris</w>": 21127, "ressenti": 27108, "\ud760</w>": 67224, "ucl\u00e9": 38779, "\u6ea5</w>": 60493, "\u85b0": 62687, "rt": 13895, "trices</w>": 7595, "dentiste</w>": 13980, "church</w>": 31119, "\u51bb": 64550, "\u032f": 63532, "\u7559</w>": 56256, "ssis</w>": 38733, "\ud800\udec2": 67340, "broches</w>": 33151, "\u7d8f</w>": 62519, "projet\u00e9es</w>": 41385, "respect\u00e9es</w>": 17904, "suffis": 27739, "johannes": 49242, "raccourcis</w>": 14374, "278</w>": 43725, "tum</w>": 8113, "musulmane</w>": 9310, "conf": 11196, "antise</w>": 45913, "palli": 42684, "ev\u00ea": 35908, "pelli": 35783, "\u7d4c</w>": 52389, "e-": 848, "regroupant</w>": 11982, "astr": 14743, "refondation</w>": 35454, "\u76e3</w>": 55890, "eniv": 22801, "regrets</w>": 16758, "entrepren": 18797, "discur": 38939, "contes</w>": 8813, "\u8f93</w>": 66357, "aventur": 30073, "just</w>": 13578, "\u8205": 65955, "som</w>": 37452, "\u00e9clatent</w>": 34677, "det": 8635, "teuses</w>": 18131, "\u93b0</w>": 66483, "\u71e7": 65458, "hue</w>": 26948, "\u00e9tait-elle</w>": 40630, "paul-": 20582, "pr\u00e9cision</w>": 3516, "32": 10468, "substrats</w>": 30540, "\u96dc</w>": 66574, "chance": 48992, "chev\u00ea": 49625, "raisonn": 27519, "prof\u00e9": 32748, "\uc606": 67095, "courantes</w>": 11967, "\u6848": 60411, "guer": 7259, "\ua767</w>": 63138, "drop</w>": 27806, "trouv\u00e8rent</w>": 26899, "repouss\u00e9e</w>": 28225, "ovi": 27104, "jura</w>": 13143, "\u1017": 58039, "cache</w>": 4421, "\u8efc": 66337, "iw": 43411, "duss": 36315, "houblon</w>": 41514, "ides</w>": 25415, "\u5dcd": 64880, "rimbaud</w>": 33069, "brooke</w>": 34089, "asses</w>": 18060, "chanvre</w>": 27063, "5,6</w>": 25063, "propre</w>": 567, "\u0b21": 61333, "parano\u00efa</w>": 39886, "passablement</w>": 30123, "\u16a2</w>": 61459, "succ\u00e9": 18174, "diox": 44592, "\u00e2g\u00e9es</w>": 5039, "hache</w>": 21074, "plaquettes</w>": 19270, "portuaire</w>": 17931, "emprunts</w>": 12763, "ici": 10668, "esse": 33193, "natural</w>": 33104, "auditeurs</w>": 13726, "psychan": 50212, "patin": 15967, "cercle</w>": 3664, "mont\u00e9": 38754, "\ud808\udda0</w>": 67451, "exceptionnellement</w>": 15839, "pages": 30512, "cheff": 31985, "ouvrables</w>": 24278, "lois": 25466, "\u5acc</w>": 61955, "anisme</w>": 19954, "te</w>": 240, "annonceur</w>": 38437, "devenus</w>": 5624, "louisi": 48204, "enfin</w>": 375, "4g</w>": 18005, "\ud800\udc0a": 67304, "brer</w>": 45225, "d\u00e9taillant</w>": 29020, "officiers</w>": 5456, "\u8a25</w>": 66187, "tuent</w>": 16406, "\u733f</w>": 58421, "ends</w>": 27494, "mus\u00e9es</w>": 6887, "pr\u00e9judiciables</w>": 41245, "visages</w>": 8695, "union</w>": 553, "\u70af</w>": 59316, "approche</w>": 1281, "pi\u00e8ce</w>": 1151, "bdsp</w>": 21119, "\u0608</w>": 63576, "\u8317</w>": 59450, "quotidi": 36535, "\u8572": 60724, "arriv\u00e9e-": 51256, "\u00a2</w>": 27748, "\u00e8ge</w>": 17279, "idr": 43204, "assass": 34963, "\u9175</w>": 60842, "retenue</w>": 5579, "\u53cd": 53460, "instrumentation</w>": 35411, "tax\u00e9s</w>": 41932, "2,1</w>": 18947, "\u7a0e</w>": 59378, "alin\u00e9a</w>": 4321, "\u8f6e</w>": 60809, "perp\u00e9tu": 21628, "micros": 24115, "\u049b</w>": 52401, "engagements</w>": 3524, "privil\u00e9gier</w>": 10771, "pr\u00e9side</w>": 15413, "espere</w>": 24052, "mentalement</w>": 22209, "internationalement</w>": 27819, "branchements</w>": 46607, "\u5bc0</w>": 64835, "homosexuels</w>": 13835, "d\u00e9pose</w>": 13784, "insomnie</w>": 35463, "contras": 12868, "indirectes</w>": 34005, "confr\u00e8re</w>": 25183, "boulanger</w>": 19268, "caf\u00e9t\u00e9ria</w>": 46243, "cuba</w>": 7428, "\u0785": 58847, "rez": 44611, "\u1f04": 50174, "rajoutez</w>": 45775, "fribourg</w>": 28134, "\u6328</w>": 65037, "g\u00e9ographiques</w>": 5542, "r\u00e8nes</w>": 48562, "suresti": 38348, "syst\u00e9matique</w>": 7532, "insist": 21202, "lacune</w>": 30417, "\ud835\udc38": 59732, "assiste</w>": 9373, "ation</w>": 1350, "\u7375": 60538, "d\u00e9duit</w>": 22632, "\u6805": 65157, "conversion</w>": 6296, "a\u00e9rospatiale</w>": 41848, "tent-ils</w>": 29402, "propr": 26009, "\u7c92": 65770, "40.": 31241, "eps</w>": 25506, "reprennent</w>": 13718, "pides</w>": 36295, "\u0e52": 63804, "num\u00e9ro": 19247, "logistiques</w>": 22114, "\u60a0</w>": 58295, "pd": 10775, "orne</w>": 19262, "juif</w>": 6503, "\ub2e8": 53409, "no-": 16712, "utions</w>": 39482, "ecologie</w>": 23605, "patrimoni": 48048, "juridictions</w>": 13032, "esa</w>": 17746, "cor": 1123, "truff": 21252, "ambiante</w>": 13673, "emp\u00eacher</w>": 2448, "\u00e9migration</w>": 21766, "mtv</w>": 35513, "senior</w>": 15796, "vistes</w>": 29359, "revenait</w>": 14971, "107</w>": 15945, "gol": 7642, "yves</w>": 5605, "cht": 18373, "bien</w>": 81, "\u5ba4": 55053, "bloomberg</w>": 29927, "invitation</w>": 6202, "contraintes</w>": 4278, "\u00e9labor\u00e9</w>": 7329, "ennuis</w>": 15684, "\u5d17": 56592, "walt</w>": 21213, "comp\u00e9ten": 47428, "\u957f</w>": 54739, "arch\u00e9ologue</w>": 31363, "st\u00e8le</w>": 36784, "kel</w>": 16314, "brosses</w>": 38528, "marisol</w>": 34852, "hydrog\u00e8ne</w>": 9283, "\u9ee8": 56337, "vestiaire</w>": 16532, "tri": 1213, "acles</w>": 44701, "est.le</w>": 41268, "armoire</w>": 14437, "98-": 46893, "\u97f5</w>": 60897, "admirable</w>": 15371, "\u1e29</w>": 56967, "\u788e</w>": 60590, "pineau</w>": 34912, "\u01fb</w>": 53181, "\u98a8</w>": 52692, "recel</w>": 39228, "gousses</w>": 30835, "tyran</w>": 26021, "qu": 1776, "zaine</w>": 48953, "soir</w>": 580, "familiaux</w>": 13464, "regroup": 31103, "chanel</w>": 22277, "\u8404": 59457, "malades</w>": 5058, "\u00e9prouv\u00e9e</w>": 31544, "c\u00e9d\u00e9</w>": 10523, "dio</w>": 22079, "\u2d20</w>": 64389, "encolure</w>": 38550, "noirceur</w>": 31826, "\u00e9cu": 13092, "visuelles</w>": 22316, "dor": 3202, "d\u00e9vast\u00e9</w>": 32450, "ails</w>": 29580, "3.": 2967, "\u66f4</w>": 57670, "\u2250</w>": 55774, "parlais</w>": 21320, "\u1ec7</w>": 50952, "bolduc</w>": 39858, "\u7cef": 59400, "chateau</w>": 27361, "\u221a": 58109, "\u23a8</w>": 56112, "sir\u00e8nes</w>": 26803, "observent</w>": 26564, "fiduciaire</w>": 41655, "\u03d9</w>": 54004, "\u5eb8</w>": 54671, "fleuris</w>": 35660, "incursion</w>": 31420, "\u6dee</w>": 60479, "\u68df": 59261, "farce</w>": 17343, "d\u00e9clinaison</w>": 25735, "ere": 23441, "\u309e</w>": 56506, "wom": 47335, "raud</w>": 29345, "\u1d9e": 61529, "allumage</w>": 18232, "d\u00e9ch\u00e8": 49255, "20\u00e8me</w>": 29521, "\u755c</w>": 59350, "xion</w>": 40499, "\u4f9b": 58161, "\ub450</w>": 60996, "\u1004</w>": 57430, "inhabituel</w>": 26577, "\u2588</w>": 64325, "\u2cab": 64381, "gang</w>": 14704, "\u81fc</w>": 62625, "\u6108": 64973, "bou\u00e9e</w>": 41716, "m\u00e9morial</w>": 18902, "spa</w>": 8316, "b\u00e9g": 29736, "une</w>": 29, "espe": 47438, "4.4</w>": 33425, "\u0432": 43670, "windo": 41866, "\u79ba</w>": 60596, "p\u00e9nible</w>": 12919, "\u7fdf</w>": 60664, "pr\u00e9voient</w>": 12189, "\u53eb": 57573, "duch\u00e9</w>": 20321, "\u2225</w>": 55018, "\u0579</w>": 56894, "muette</w>": 27525, "enseignants-chercheurs</w>": 44604, "stones</w>": 29212, "aero": 36838, "woo": 32655, "choqu\u00e9e</w>": 37656, "mitage</w>": 48811, "249</w>": 34526, "artificielle</w>": 15567, "marcel</w>": 6857, "sympt\u00f4mes</w>": 6050, "\u643e</w>": 62116, "essen</w>": 30542, "\u01e9": 61147, "\u96eb</w>": 66576, "baskets</w>": 20496, "\u00c1": 56017, "monta": 23739, "\u9134": 66433, "\u0586": 54118, "qualifi\u00e9es</w>": 17012, "v\u00e9l": 35429, "hosni</w>": 38067, "\u0090": 63464, "loca": 34760, "feuillets</w>": 26567, "\u9d3b</w>": 55655, "1907</w>": 19378, "diaporama</w>": 24686, "bourre</w>": 45819, "\u9055": 62858, "nomades</w>": 20672, "\u6b7b": 54196, "1896</w>": 22383, "\u80e7</w>": 65917, "r\u00e9parti</w>": 23283, "relatif</w>": 2978, "\u8429": 58522, "pr\u00e9c\u00e9dentes</w>": 5460, "\u02b2": 50199, "monti": 18029, "condens\u00e9</w>": 35416, "soudan</w>": 9141, "rover</w>": 32678, "\uac80": 57297, "\uc5f0</w>": 52501, "ciboulette</w>": 35468, "fame</w>": 39651, "\u8eab": 53649, "lor</w>": 22204, "tren": 24198, "\u8bbe": 56305, "connecticut</w>": 36247, "cal\u00e9</w>": 44621, "\u85cf": 52364, "nd</w>": 11034, "\u867e</w>": 66097, "\u9418</w>": 55956, "apreslachat</w>": 24266, "\u00e9dulcor": 33040, "sley</w>": 37931, "totale</w>": 2155, "\u5703</w>": 64714, "-y</w>": 42791, "ren\u00e9gocier</w>": 41740, "enrichis</w>": 38674, "\u023c": 56878, "plis</w>": 15625, "offrez</w>": 32322, "\u7b54</w>": 55901, "dini</w>": 33293, "\u03b5": 17107, "\u30ce": 51819, "cosm\u00e9tiques</w>": 11380, "aband": 45365, "inqui\u00e9tants</w>": 37943, "feuill": 11261, "\u515a</w>": 53064, "\u5404": 54653, "syst\u00e8": 41372, "\u8fb6</w>": 59541, "publish": 46431, "\u039f": 63543, "arri\u00e8res</w>": 21752, "suffira</w>": 14630, "gu\u00e9rir</w>": 12528, "v.": 10501, "308</w>": 30087, "boulangerie</w>": 11996, "issy</w>": 22658, "nis": 7589, "relais</w>": 4833, "aska</w>": 46943, "\u31f4</w>": 64444, "substantiel</w>": 33417, "mut\u00e9</w>": 41394, "majest\u00e9</w>": 9775, "huff": 31614, "\u6f33": 57157, "taxation</w>": 17278, "strass</w>": 32355, "\u02cd</w>": 63522, "ail": 9662, "constituent</w>": 2789, "\u0a5c": 56912, "\u97ad": 60894, "port\u00e9s</w>": 8651, "r\u00e9pond</w>": 2898, "\u83e0": 62659, "qualifient</w>": 30482, "tampons</w>": 24977, "\u4eb0</w>": 64466, "victorieux</w>": 22889, "asion</w>": 50261, "serrage</w>": 19161, "branch\u00e9e</w>": 37621, "r\u00e9cession</w>": 10782, "r\u00e9p\u00e9": 19560, "sp\u00e9cialiser</w>": 42908, "plug-": 40720, "\u987b": 66621, "\u4fa6": 64490, "\u5192": 55272, "ignorance</w>": 10730, "av.</w>": 16630, "10-": 7885, "\u55a9</w>": 64679, "r\u00e9tabli": 37592, "\u6da6</w>": 65313, "dumont</w>": 23013, "confesse</w>": 40119, "graffiti</w>": 38043, "bauer</w>": 26260, "\u12ab": 54807, "mem": 8055, "jadas</w>": 50858, "vendeuse</w>": 33852, "\u1361</w>": 56085, "\u5468</w>": 52714, "\u1fcc</w>": 61563, "cisses</w>": 49528, "roanne</w>": 45642, "auf": 43251, "\u6276</w>": 59200, "battu</w>": 5221, "\u5ba3</w>": 54170, "observations</w>": 3846, "ensem": 48676, "\u7199</w>": 54886, "eccl\u00e9sias": 49449, "\u1e1b</w>": 59974, "conna\u00eet</w>": 2290, "wimble": 50909, "\u653f": 51331, "\u60d5</w>": 64961, "ren\u00e9e</w>": 30942, "collaborative</w>": 26493, "\u606d": 53720, "\u2ca1": 54626, "syndicats</w>": 3618, "alli\u00e9es</w>": 25351, "\u97cb": 55140, "trines</w>": 34832, "consultables</w>": 33119, "\uacb0</w>": 60976, "mission</w>": 886, "trol": 16285, "institutionnel</w>": 10909, "\u015d": 50660, "enfre": 35500, "prospectus</w>": 25798, "antidopage</w>": 29474, "pantou": 41642, "-up</w>": 33476, "\u00e9crin</w>": 21002, "\ub9b0": 57893, "\u7d19</w>": 53398, "\u4e2d</w>": 51643, "veri": 25223, "hippie</w>": 46042, "repoussant</w>": 36887, "\u64b2": 62124, "ppm</w>": 29786, "montent</w>": 15804, "182</w>": 25431, "ongy": 50136, "envoie</w>": 4978, "perry</w>": 23514, "\u00e9nerve</w>": 28746, "\u6eab</w>": 56241, "r\u00e9v\u00e9lait</w>": 30364, "s\u00e9ducteur</w>": 39086, "tendait</w>": 37338, "\u101e</w>": 56933, "r\u00e9nover</w>": 22527, "immin": 39703, "odeurs</w>": 12788, "n\u00e9gliger</w>": 16812, "illent</w>": 14191, "ged</w>": 17049, "montana</w>": 31010, "gere</w>": 39149, "\u9756": 53408, "caract\u00e9risation</w>": 25625, "najat</w>": 37763, "torat</w>": 39050, "d\u00e9couvre</w>": 3091, "\u8872": 66147, "\u6211": 51126, "\u0a06": 54982, "officielles</w>": 5887, "cas-l\u00e0</w>": 35181, "friday</w>": 21304, "\uac11": 56338, "\u61a9</w>": 62066, "fist</w>": 46085, "marseillais</w>": 16085, "etudi": 44738, "\u6bbb</w>": 65250, "r\u00e9solue</w>": 22015, "pm": 23497, "french</w>": 13952, "east</w>": 16904, "trois</w>": 152, "beaune</w>": 33014, "17": 1438, "\u5048</w>": 59044, "kie</w>": 29907, "\u1f51</w>": 53443, "tendrement</w>": 36130, "tendanci": 45638, "d\u00e9pass\u00e9e</w>": 24924, "entra\u00ee": 39751, "\u660f": 58332, "exploser</w>": 10957, "n'</w>": 53, "maillot</w>": 6658, "disposaient</w>": 31547, "bail</w>": 9267, "\u6de8": 55584, "other</w>": 17093, "vot\u00e9e</w>": 16820, "longitu": 50758, "avalanche</w>": 19607, "prim": 6498, "humeurs</w>": 31077, "cens\u00e9e</w>": 15273, "\u6869": 65174, "bergers</w>": 26167, "\u88ae</w>": 66156, "\u6e08</w>": 55876, "mo\u00efse</w>": 15536, "martinez</w>": 22515, "\u00e9pargne-": 45554, "\u0ca4": 54989, "parcourus</w>": 39099, "svt</w>": 44556, "bienvenus</w>": 19480, "\uc9f1": 67132, "diversion</w>": 34551, "seven": 30659, "dent": 14057, "\uc694": 53866, "germany</w>": 45385, "mont\u00e9r\u00e9gie</w>": 39408, "quer": 8921, "andrew</w>": 12913, "insistent</w>": 29999, "boo": 28648, "\u0cb5</w>": 58025, "\u0d27": 61361, "R</w>": 50551, "sup\u00e9rette</w>": 43775, "cort": 37461, "crime</w>": 3311, "\u2171": 53908, "\u0a72</w>": 61307, "19e</w>": 16773, "condamn\u00e9s</w>": 8457, "niquer</w>": 43609, "sire</w>": 19984, "cee-": 37104, "302</w>": 38042, "adaptant</w>": 25643, "locatif</w>": 26692, "r\u00e9dactions</w>": 35619, "\u555f</w>": 56558, "confronte</w>": 38797, "\u16b7": 58937, "\u0e06</w>": 63799, "convoitise</w>": 45072, "es.le</w>": 21165, "muse</w>": 24621, "tropicaux</w>": 34183, "dev</w>": 24188, "mascarpone</w>": 42104, "combu": 48857, "raisins</w>": 13767, "berto</w>": 35104, "charmants</w>": 22465, "huissiers</w>": 45256, "n\u00e8": 46982, "\ud800\udf38</w>": 63381, "bias</w>": 40167, "elvis</w>": 30101, "lesse</w>": 41106, "\u7e7c</w>": 62540, "lombar": 28171, "grotes": 47183, "procurant</w>": 41517, "\u9006</w>": 57835, "emp\u00each\u00e9s</w>": 43484, "us\u00e9</w>": 20556, "chement</w>": 12589, "\u0782": 54009, "jacquel": 50037, "\u50a9": 61771, "faisceau</w>": 10543, "engage</w>": 3915, "complo": 37163, "automatis\u00e9</w>": 21417, "empathie</w>": 19290, "zo\u00e9</w>": 33861, "\u8a00</w>": 51906, "fiscalit\u00e9</w>": 7617, "wear</w>": 27533, "menteur</w>": 30968, "accordant</w>": 19536, "apaisement</w>": 21903, "pleure</w>": 16776, "\u675c</w>": 59248, "parall\u00e8les</w>": 11433, "level": 45422, "pria</w>": 41157, "bank</w>": 6148, "\u2cad</w>": 61670, "\u02c7": 50623, "\u754c</w>": 53016, "\u0270</w>": 55442, "ordinaire</w>": 3759, "christopher</w>": 16356, "\u00e9cr": 27387, "\u4e66</w>": 52630, "fi\u00e8vre</w>": 9513, "vtt</w>": 11719, "\u54e1": 53371, "disposi": 28525, "attira</w>": 45003, "\u5217</w>": 55813, "affirm\u00e9</w>": 2762, "cadavre</w>": 13287, "manipul": 16228, "st\u00e9no": 44562, "\uc0bc</w>": 59673, "\u739f": 62373, "advan": 47766, "\u7e7c": 54710, "attris": 38394, "raw": 42627, "clips</w>": 16504, "b\u00e9n\u00e9ficier</w>": 2599, "\u0165": 49896, "\u7a46</w>": 57744, "\u5192</w>": 61787, "\u838a</w>": 55917, "\u1205": 54131, "c\u00f4te-": 39588, "\u30fe</w>": 54447, "pigmen": 21947, "capital</w>": 1730, "ania</w>": 19373, "voiles</w>": 16586, "6-2</w>": 15638, "dior</w>": 25576, "mosa\u00ef": 49094, "napol\u00e9": 24397, "dre.": 46539, "visual</w>": 36581, "\u0b8e": 58015, "\ua815</w>": 66827, "\u9081": 66394, "enfonc\u00e9</w>": 32233, "positionner</w>": 11627, "organise</w>": 4504, "entretenues</w>": 40390, "emprunteurs</w>": 34600, "int\u00e9rargir</w>": 27703, "admin</w>": 29068, "\u1334</w>": 61416, "pointer</w>": 18847, "\u79aa</w>": 56262, "ignor": 12642, "id\u00e9ologique</w>": 12046, "\u00efdes</w>": 20494, "confirmait</w>": 44504, "romanesque</w>": 23123, "lines</w>": 22299, "ancr\u00e9es</w>": 42344, "x.com</w>": 48409, "\u00e9plucher</w>": 37561, "251</w>": 35250, "fracas</w>": 33830, "d\u00e9dommagement</w>": 34317, "h\u00e9r\u00e9si": 48142, "\u121c</w>": 63844, "\u7fa9</w>": 51812, "abrasion</w>": 45994, "agac\u00e9</w>": 42278, "\u154b": 63946, "alertes</w>": 6504, "coll": 7310, "\ud6d7</w>": 67219, "enclav": 37579, "monroe</w>": 37051, "1961</w>": 10204, "brill": 14347, "ment.": 35365, "pagesjaunes": 52285, "\u304b</w>": 51711, "magdal": 48738, "\u057e</w>": 54117, "recouv": 14826, "\u057c</w>": 54974, "multiculturalisme</w>": 34632, "\u16dc": 64019, "\u10f2</w>": 63834, "\u5ef3</w>": 57095, "\u15f4": 63962, "transpi": 32577, "tranquill": 38017, "transmissibles</w>": 32176, "insignifi": 25908, "pnb</w>": 36251, "\u53bb": 53369, "http</w>": 28013, "c\u00e2": 16838, "dioc\u00e8ses</w>": 38882, "d\u00e9s\u00e9quilib": 45338, "\u0aa5</w>": 61321, "abstentions</w>": 35288, "permanences</w>": 37514, "portails</w>": 27560, "\u16b1</w>": 58936, "explorateur</w>": 22511, "absences</w>": 22776, "inspire</w>": 7790, "hay": 9553, "masters</w>": 13289, "cts</w>": 19216, "\u278a</w>": 50932, "\u2c30</w>": 61627, "progressif</w>": 12976, "immun": 26299, "a3</w>": 30014, "replier</w>": 29178, "\u5370</w>": 54459, "\u6458": 60363, "allemagne</w>": 1028, "sea": 38837, "d\u00e9fil\u00e9s</w>": 22581, "d\u00e9ploient</w>": 30865, "sun</w>": 9932, "\u640d</w>": 57655, "69": 10655, "commanda</w>": 46458, "\u9ad8": 50783, "consommant</w>": 43120, "inattendu</w>": 16654, "maximale</w>": 5209, "boards</w>": 46889, "chr\u00e9tien</w>": 6886, "enseignements</w>": 7308, "d\u00e9clinaisons</w>": 31388, "ind\u00e9pendant</w>": 3645, ".com</w>": 3544, "\u2d62": 51275, "medi": 7374, "\ud835\udc51": 67490, "toit</w>": 4518, "dell</w>": 16844, "\uff89": 63371, "pendentif</w>": 31832, "opposera</w>": 41424, "ouverture</w>": 1044, "\u00e9clair\u00e9es</w>": 33673, "\u687f": 65178, "quebec": 45989, "\u59ae": 61935, "dizaine</w>": 3533, "demand\u00e9</w>": 1271, "\u7b45</w>": 62481, "doss": 29897, "os</w>": 1079, "repousser</w>": 11911, "wade</w>": 13307, "\u9249": 62899, "\u00e9pices</w>": 8364, "r\u00e9ussite</w>": 2806, "sachs</w>": 25552, "retrouve</w>": 1268, "tourn\u00e9</w>": 5483, "\ub9ac": 51614, "pr\u00e9par\u00e9es</w>": 21614, "teur</w>": 2490, "\u92fc": 58623, "\u04e5</w>": 61207, "\u01d8</w>": 55438, "soigner</w>": 7562, "aver</w>": 29533, "alternativement</w>": 27536, "remment</w>": 48561, "sollicitude</w>": 39903, "\u84df</w>": 66047, "mettez</w>": 7148, "\u5f25</w>": 55548, "patriote</w>": 31106, "1968</w>": 7179, "cristallin</w>": 35427, "conditionnement</w>": 13344, "pr\u00e9fectoral</w>": 32503, "papy": 36099, "\u30af</w>": 51401, "zou</w>": 31386, "n\u00e9ophy": 47150, "\u10dd</w>": 51730, "sarthe</w>": 23378, "\u8aad": 53849, "contrairement</w>": 2538, "auster": 43893, "d\u00e9coll\u00e9</w>": 39075, "berthe</w>": 43332, "d\u00e9ra": 45174, "ta\u00ef": 26972, "orifices</w>": 28193, "\u1e9b</w>": 64209, "spvm</w>": 35469, "entre-": 17312, "cow-": 37696, "ferons</w>": 11891, "automatiques</w>": 14176, "hesse</w>": 45415, "alph": 31893, "\ucc98</w>": 67144, "\u0eb2</w>": 53682, "ronds</w>": 18584, "m\u00e9dicinales</w>": 29724, "\uc544</w>": 52184, "contingent</w>": 15440, "ticket</w>": 12309, "offen</w>": 42976, "\u02b5</w>": 61165, "\u5ee3</w>": 55546, "\u00e9lecteurs</w>": 3730, "ra</w>": 1167, "inter</w>": 7936, "\u00e9mergents</w>": 11429, "\u2300</w>": 64316, "\u2d4e": 50868, "postaux</w>": 30866, "s.a</w>": 23986, "litz</w>": 29075, "\u0ed0</w>": 63815, "tchi": 32466, "\u9293</w>": 62903, "\u6957": 65195, "\u8f87": 66355, "h\u00e9n": 40367, "atrices</w>": 12866, "\uae4a": 66915, "s\u00e9ville</w>": 18916, "canard</w>": 10426, "boeuf</w>": 15177, "claudine</w>": 32446, "again</w>": 33288, "pleur": 20907, "correspond": 49545, "p\u00e9r\u00e9grin": 42305, "pr\u00e9som": 48492, "voice</w>": 22761, "lient</w>": 27232, "examin\u00e9</w>": 6911, "th\u00e9ori": 48769, "dela": 32707, "amicaux</w>": 29802, "\u66b4": 55570, "brouillard</w>": 14384, "gro</w>": 25303, "r\u00e9fl\u00e9chir</w>": 4540, "coop\u00e9rations</w>": 37044, "\u5e78": 53007, "shirts</w>": 35086, "sim": 7940, "1826</w>": 40061, "infin": 16189, "rundi</w>": 50051, "parl": 9067, "\ubabb": 57307, "meurtres</w>": 11930, "ruptures</w>": 22187, "chromes</w>": 46283, "holoc": 49056, "\uff48": 54963, "manufacture</w>": 24919, "cher-": 40425, "\u63a2": 55321, "ppes</w>": 30286, "exprim": 14226, "oman": 41561, "spel</w>": 49416, "\u208a</w>": 64262, "ater</w>": 18603, "faible</w>": 1226, "shir": 39031, "\ucc44</w>": 57912, "\u120b</w>": 54020, "dieu": 25051, "d\u00e9terminant</w>": 9721, "queville</w>": 44006, "m\u00e9morisation</w>": 32196, "dao</w>": 33459, "mobi": 22019, "\u049b": 51574, "d\u00e9cryptage</w>": 32980, "\u7826": 65656, "quatori": 48147, "asper": 22517, "mm</w>": 1844, "monnaies</w>": 12432, "reverse</w>": 46613, "lei": 10626, "\u5bc4": 56585, "tes.</w>": 40416, "onale</w>": 20838, "anon</w>": 41914, "saler</w>": 24131, "r\u00e9invente</w>": 46388, "suite": 24347, "\u2c6c</w>": 61661, "sign</w>": 43923, "\u5e1b</w>": 59156, "\u1010</w>": 58038, "\u6a84</w>": 65222, "critique</w>": 1701, "mettra</w>": 7409, "e-et-": 27789, "\u8594": 60727, "agend": 49692, "\u1449</w>": 63918, "\ud638</w>": 51659, "fr": 4560, "ad\u00e9quation</w>": 13854, "enau</w>": 48310, "gras</w>": 4314, "lehman</w>": 44876, "\uc5f4</w>": 59684, "sierra</w>": 12750, "omega</w>": 34386, "\u5e25": 64887, "fibre</w>": 6778, "\u0266</w>": 55181, "prospective</w>": 21451, "\u3050": 53911, "4,": 4419, "1-3</w>": 27591, "familiarit\u00e9</w>": 42260, "\u30d3</w>": 54833, "rejet\u00e9e</w>": 14146, "richar": 47513, "\u5f31</w>": 57631, "banale</w>": 23507, "encombrant</w>": 35615, "\u6301": 54680, "apprendre</w>": 1764, "visi\u00e8re</w>": 46134, "v3</w>": 39835, "l\u00e9gislation</w>": 2932, "r\u00e9flexe</w>": 17737, "rat\u00e9s</w>": 31600, "0,50</w>": 42254, "four</w>": 2676, "excitante</w>": 46675, "afghans</w>": 21774, "\uce20</w>": 59698, "\u00e9migr\u00e9s</w>": 30994, "beaut\u00e9</w>": 2080, "intenable</w>": 41422, "culture</w>": 750, "\u060c</w>": 50548, "consin</w>": 50821, "compagnie</w>": 1189, "asie</w>": 2831, "\uc644": 67097, "annonceurs</w>": 19189, "pornographiques</w>": 39342, "hypertension</w>": 22400, "gar\u00e7on</w>": 3339, "radiateur</w>": 23268, "lou": 2880, "connaissent</w>": 4292, "sat": 10135, "inventeur</w>": 17191, "ar\u00e8ne</w>": 18546, "venir</w>": 897, "vtc</w>": 37460, "\u87d2</w>": 66129, "missionnaire</w>": 17420, "\u95dc</w>": 53028, "visible</w>": 4001, "dap</w>": 40155, "ath\u00e9es</w>": 41531, "m\u00ealer</w>": 16969, "\u0dba": 55471, "encourager</w>": 4372, "obligatoirement</w>": 11596, "d\u00e9complex": 37270, "roma</w>": 24728, "\u809b": 65908, "d\u00e9bouch\u00e9s</w>": 18568, "\uff5c</w>": 57927, "va-et-": 50656, "cartouches</w>": 16694, "\u6c74</w>": 65272, "\u4e4e": 58145, "cit\u00e9s</w>": 5339, "ga\u00ebl</w>": 30064, "\u1e95</w>": 58961, "standard</w>": 3736, "trilogie</w>": 15873, "endom": 47653, "sacoche</w>": 40151, "inaires</w>": 37272, "matinal</w>": 45107, "109</w>": 15547, "autrichiens</w>": 23775, "fun</w>": 11213, "\u7165": 62340, "\u00e4": 5343, "affect\u00e9</w>": 7685, "\u03db</w>": 49205, "litur": 38495, "expres": 18118, "\u03d2": 59782, "d\u00e9roulera</w>": 12215, "\uff0a</w>": 52164, "\u0153uf</w>": 12175, "pavot</w>": 44160, "convives</w>": 16711, "\u1322": 63884, "astres</w>": 19758, "d3</w>": 36417, "crs</w>": 25069, "aid</w>": 19208, "\u7261": 53554, "hu\u00eetres</w>": 25820, "\ud802\udd07": 67426, "enva": 45969, "renseignement</w>": 6637, "superflu": 40361, "chak": 31064, "k\u00f6": 17442, "joyeux</w>": 9465, "fess": 34759, "stro": 16329, "timides</w>": 30292, "\u8526</w>": 66056, "individu": 12353, "\u5e93</w>": 59162, "herz": 48070, "\u10e0": 50460, "\u8139</w>": 62606, "successi": 39440, "\u6760": 65135, "\u12c9": 63870, "m\u00e9ment</w>": 48737, "lithium</w>": 26715, "\u10d1": 50943, "mag</w>": 19527, "\u961f": 62945, "wallonie</w>": 16163, "caporal</w>": 33550, "techniquement</w>": 12995, "r\u00e9siste</w>": 12278, "arpen": 23761, "labyrinthe</w>": 21184, "correspondances</w>": 21640, "martin</w>": 2817, "bord\u00e9e</w>": 23171, "chou": 6756, "els.": 35496, "yle</w>": 16243, "atem": 48821, "cho</w>": 11319, "pc": 21589, "\u7889": 59363, "pouvaient</w>": 3873, "sn</w>": 27802, "prescrip": 33496, "ferdin": 49073, "recommenc\u00e9</w>": 39512, "\u5394": 64607, "app\u00e9": 24662, "\u1404": 56458, "oth\u00e9rapie</w>": 31461, "film": 43269, "\u741b</w>": 65531, "lancement</w>": 3303, "\u0f61</w>": 63820, "\u5b93": 64832, "\u983b</w>": 66615, "\ud589</w>": 56860, "septique</w>": 24457, "hallyday</w>": 27648, "d\u00e9mocratiques</w>": 9041, "ecolo</w>": 40917, "ocli": 36940, "sex</w>": 16368, "\u66ff": 62175, "270</w>": 16790, "sous-marine</w>": 23815, "e-up</w>": 34920, "\u6641": 62162, "parfum</w>": 5898, "fili\u00e8res</w>": 10822, "\u5e94</w>": 60283, "langage</w>": 2901, "lumin": 15790, ".avec</w>": 38161, "ferrari</w>": 12871, "radio": 8285, "d\u00e9barqu\u00e9</w>": 23147, "garden</w>": 22791, "amn\u00e9": 45169, "\u01d4": 50514, "\u306d": 52992, "\u00f1": 11448, "recruteurs</w>": 29350, "ine</w>": 934, "interfaces</w>": 18309, "mao</w>": 24561, "\u7f18": 58492, "html</w>": 13701, "\u0211": 63493, "utilis\u00e9e</w>": 2465, "berie</w>": 48385, "\u573b</w>": 58233, "blocages</w>": 26265, "avan": 7434, "cation": 18945, "commer\u00e7ant</w>": 14786, "immunitaires</w>": 39603, "\u9358": 66475, "\u30ba": 52085, "municipaux</w>": 9050, "\u6ca7</w>": 65277, "noy</w>": 34583, "\u66fa": 65132, "tangi": 49196, "fuir</w>": 7315, "\u0463</w>": 52400, "\u6d46</w>": 65294, "compl\u00e9mentari": 48740, "\u03d1</w>": 54970, "\u5b5c</w>": 61962, "contre-": 3760, "persister</w>": 45637, "planet</w>": 26245, "gile</w>": 45076, "radicales</w>": 29395, "cost": 17640, "hisse</w>": 40904, "eer</w>": 42802, "\u7faf": 65883, "\u921e": 58619, "l\u00e2ches</w>": 35385, "s\u00e9raph": 46015, "\u16c8</w>": 61465, "\u8956": 66175, "informer</w>": 4533, "robot</w>": 7704, "\u607a": 64949, "par-": 31556, "\u00c8</w>": 63472, "ensoleill\u00e9es</w>": 40802, "valant</w>": 28754, "nerf</w>": 24091, "soupir</w>": 26367, "r\u00e9sistance</w>": 2032, "\ud802\udf6d</w>": 67441, "disposerez</w>": 38616, "longitudinal</w>": 24747, "impu": 8293, "cha\u00eenes</w>": 4940, "viables</w>": 28433, "p\u00e9ris": 24383, "parten": 38688, "lise</w>": 13397, "\u17ae": 61480, "\u22a5</w>": 51732, "adap": 9351, "repr\u00e9": 49560, "vals</w>": 46972, "\u0b4d</w>": 61338, "repr\u00e9sent\u00e9e</w>": 9059, "\u00e9cras\u00e9</w>": 17040, "diff\u00e9renci": 21813, "ascend": 39286, "lustr": 45351, "c.3</w>": 43915, "\u8d44": 54726, "\u4e58": 55797, "myst": 49148, "escadri": 49087, "giv": 26609, "manchon</w>": 26160, "\uab52</w>": 60968, "\u1000</w>": 55477, "\u5439": 54654, "rubans</w>": 24922, "drain</w>": 41390, "held</w>": 41072, "ara": 30655, "luke</w>": 20214, "\u7cf0</w>": 65783, "antine</w>": 35929, "\ud802\udc40</w>": 67413, "1.200</w>": 43249, "\u0153ufs</w>": 6719, "\u307c</w>": 58995, "embauches</w>": 31471, "\u8ca0</w>": 55389, "\u08a2</w>": 63642, "laon</w>": 44574, "\u559d": 64676, "wilson</w>": 13371, "composait</w>": 34762, "changements</w>": 1935, "r\u00e9sidu": 37548, "subjectif</w>": 29579, "podium</w>": 7587, "\u920d</w>": 62896, "repr\u00e9senterait</w>": 31118, "\u95a8</w>": 66524, "sortent</w>": 7579, "\u308d": 52892, "disposition</w>": 1145, "\u0ab3": 61324, "\u03b9</w>": 27421, "embrass": 16781, "midi-": 48340, "h\u00e9ros</w>": 2555, "sous-programme</w>": 34634, "couch\u00e9e</w>": 34756, "meurtri\u00e8res</w>": 29965, "officine</w>": 42847, "gagnant</w>": 6750, "\u6e80": 54492, "survivre</w>": 7759, "exigeantes</w>": 42689, "piste</w>": 2981, "\uff51</w>": 63367, "lenteur</w>": 17858, "\u6d4f": 65297, "empereur</w>": 3828, "sort</w>": 1472, "lises</w>": 49488, "\u54e6</w>": 61863, "noz</w>": 44358, "aboli": 24968, "magh": 48355, "speed": 43817, "rectificatif</w>": 40392, "koi": 43637, "engorg": 41229, "ameu": 48159, "\u3059": 51581, "adjoint</w>": 3969, "\u207f": 52438, "tees</w>": 38889, "affluent</w>": 18476, "\u65ec": 58329, "\u9e1f</w>": 55656, "conserv\u00e9</w>": 7027, "krem": 47427, "annan</w>": 37584, "\ud544</w>": 67211, "dification</w>": 23760, "empress": 24957, "ouf</w>": 17479, "chicag": 49396, "marianne</w>": 16134, "\u8a70</w>": 59493, "meuses</w>": 46138, "jacky</w>": 32368, "grat": 20541, "..": 47842, "s\u00e9ni": 26084, "satisfaisantes</w>": 36030, "ftp</w>": 28800, "rame</w>": 23290, "p\u00e9n\u00e8": 50022, "gens</w>": 401, "territoriales</w>": 7025, "ll": 3786, "\u00e2pr": 43128, "\u6c8c</w>": 65275, "\u0d7b</w>": 58895, "comp\u00e9titions</w>": 8800, "compara\u00eetre</w>": 26606, "sensorielle</w>": 38600, "\u8ba4": 66224, "\uccb4</w>": 63291, "diable</w>": 6679, "soliste</w>": 33932, "fixe</w>": 3030, "\u02e2": 56394, "tester</w>": 4583, "brook": 35923, "couchant</w>": 30337, "siers</w>": 25941, "oiselle</w>": 49160, "\u00e9ventualit\u00e9</w>": 18842, "tan\u00e9es</w>": 34550, "d\u00e9sir\u00e9</w>": 17095, "chili</w>": 8582, "hiro</w>": 34258, "investissement</w>": 1575, "\u7693": 62418, "effrayante</w>": 34602, "\u3080": 53698, "facilement</w>": 1352, "\u00e9paule</w>": 8050, "\u89aa": 52051, "plate": 47314, "\u80fd": 52419, "inhum": 40129, "comprom": 29742, "\u5e7d</w>": 60280, "trait\u00e9e</w>": 10399, "divisent</w>": 33771, "descend": 18215, "existait</w>": 7178, "menuiserie</w>": 27895, "saurus</w>": 43162, "chypriote</w>": 33944, "vait</w>": 16029, "craqu\u00e9</w>": 22200, "grandir</w>": 10419, "fraiche</w>": 27446, "sommai": 40276, "feld</w>": 16057, "improvisation</w>": 19091, "47": 17096, "\u2d43</w>": 56497, "janeiro</w>": 23254, "\u7bc0": 53397, "eux-m\u00eames</w>": 3112, "ss": 1999, "webcam</w>": 21156, "veux</w>": 1006, "stu": 6659, "mira</w>": 38556, "\u3083": 52411, "offraient</w>": 32782, "lip": 29846, "libertine</w>": 43035, "\u00e9lastique</w>": 11715, "tron": 8368, "\uad50</w>": 51431, "valois</w>": 32670, "\u308c": 51438, "rons-nous</w>": 32019, "\u06bc": 63608, "saint-cloud</w>": 42505, "300": 15291, "\u1d5b": 61520, "larme</w>": 28506, "\u6270</w>": 65011, "\u5c3a": 58263, "viet": 48215, "\u2210</w>": 58108, "\u3007": 56500, "notera</w>": 19094, "juniors</w>": 19535, "attractif</w>": 21298, "respect\u00e9e</w>": 16601, "viti": 32168, ".ca</w>": 40890, "peo": 39505, "d\u00e9plac\u00e9s</w>": 12784, "provinciale</w>": 14325, "seigneu": 47271, "\uc18c": 51952, "m\u00e9dicaments</w>": 2794, "contenu</w>": 1225, "m\u00e9nagers</w>": 25327, "cop": 7752, "forc\u00e9e</w>": 13341, "cons</w>": 9253, "\u1f76</w>": 49281, "\u9646</w>": 66554, "saka</w>": 47568, "\u0e20": 52192, "280</w>": 17287, "jambes</w>": 4486, "\u7897</w>": 57190, "valentine</w>": 29929, "--il</w>": 28260, "ele": 9152, "chasses</w>": 39038, "sup\u00e9rieures</w>": 6550, "barbier</w>": 27758, "\ubc84</w>": 57311, "\u9c85": 66721, "\u59e5</w>": 61940, "ludwi": 48787, "quelqu'</w>": 1302, "trait\u00e9s</w>": 3699, "cru": 6971, "conduisit</w>": 28301, "v\u00e9cu</w>": 3100, "sarajevo</w>": 37616, "taverne</w>": 37813, "extr\u00e9mistes</w>": 16288, "artine</w>": 49805, "rentr": 14046, "\u5709": 64717, "\u00e8ves</w>": 29805, "secours</w>": 3016, "charmantes</w>": 30342, "patronale</w>": 31630, "verront</w>": 14461, "appel\u00e9s</w>": 5697, "travaillera</w>": 31439, "ing-": 18952, "montr\u00e9": 48840, "r\u00e9s</w>": 2698, "km</w>": 936, "enfer</w>": 6832, "rafra\u00eechissement</w>": 46075, "indiquent</w>": 7167, "divul": 19184, "rid": 41720, "enfants.": 35711, "ping": 25767, "pacifique</w>": 4476, "\u0221": 58792, "buffy</w>": 37048, "cell</w>": 28952, "\u9a6c</w>": 53855, "ceau</w>": 16056, "enrichit</w>": 24124, "\u9326</w>": 57265, "pression</w>": 1257, "naval</w>": 22894, "r\u00e9gim": 46927, "\u65b7": 59233, "glorieux</w>": 18646, "compagnon</w>": 6361, "\u8b5a": 54364, "plongez</w>": 38351, "aqueduc</w>": 37944, "\u502d</w>": 56141, "rene</w>": 34831, "achet\u00e9es</w>": 28621, "transgression</w>": 40040, "excell": 29029, "stark</w>": 35206, "\u09eb": 61296, "stationn": 14832, "tland</w>": 42891, "uruguay</w>": 15825, "ergo": 40351, "\u95eb</w>": 66536, "primeur</w>": 41966, "\u00c6": 53873, "exportateur</w>": 23327, "kill": 22929, "filtre</w>": 5507, "lyon": 45397, "interception</w>": 33207, "tionnisme</w>": 40513, "\ud310</w>": 61068, "t\u00e9m\u00e9": 47126, "\u30dd</w>": 58999, "derie</w>": 22190, "\u15d0</w>": 63961, "consister</w>": 35080, "min\u00e9raux</w>": 10477, "ki-": 43700, "torche</w>": 31298, "install\u00e9es</w>": 12906, "raf": 19086, "aure</w>": 37836, "varier</w>": 7884, "mickey</w>": 22484, "transmis</w>": 5971, "perte</w>": 1809, "\u62a5</w>": 53220, "ecs</w>": 33521, "chuter</w>": 20069, "parcour": 28789, "rences</w>": 25092, "reviendra</w>": 12013, "sermons</w>": 46724, "t\u00e9l.</w>": 24470, "\ubcbd</w>": 63227, "linkedin</w>": 29014, "\uff53": 54774, "\u7801": 65652, "motivations</w>": 12916, "parait</w>": 9036, "botan": 28808, "doutez</w>": 39012, "rh\u00f4ne</w>": 8836, "skin": 28783, "louent</w>": 41980, "orchestres</w>": 33586, "chimpan": 44413, "\u12f0": 52098, "sci</w>": 23531, "mam</w>": 37866, "\ua730</w>": 66805, "dy": 5243, "C</w>": 50175, "\u096c</w>": 61289, "restitu": 16511, "\u9291</w>": 62901, "gentiment</w>": 15686, "1-2</w>": 15961, "\u6284": 60336, "fonda</w>": 27200, "onine</w>": 45303, "\u1335": 53440, "menson": 25107, "carrier</w>": 43031, "instruit</w>": 23694, "zin</w>": 25895, "\u81cd": 65949, "socio\u00e9conomiques</w>": 37955, "\ud835\udc28</w>": 67477, "transmettent</w>": 26557, "enro": 21108, "master": 23740, "aujour": 49106, "oine</w>": 48081, "\u721b": 65463, "trolls</w>": 40889, "everest</w>": 44613, "abus</w>": 4954, "\u5f6a": 64923, "mbourg</w>": 49459, "int\u00e9grante</w>": 11455, "bell": 32484, "choisissez</w>": 5140, "furie</w>": 40429, "\u146e</w>": 63921, "\u89c9": 58547, "\u133d": 59924, "soixante-": 11370, "t\u00e9l\u00e9vis\u00e9</w>": 21281, "recueille</w>": 13615, "t\u00e9es</w>": 1440, "bund</w>": 45571, "bayard</w>": 40842, "m\u00e8ne</w>": 3869, "\u742c</w>": 59336, "toral</w>": 38945, "\u090d</w>": 63646, "p\u00e9nalis\u00e9</w>": 36907, "p\u00e9": 1964, "introuvable</w>": 33889, "baignoire</w>": 10117, "\u8bc3": 66233, "phare</w>": 7120, "brio</w>": 19486, "effray\u00e9e</w>": 46768, "\u00e9las": 38527, "\u03df</w>": 51310, "supr\u00e9matie</w>": 25123, "na\u00efve</w>": 26318, "faisoit</w>": 39487, "marchait</w>": 18960, "\u0e15</w>": 52932, "d\u00e9sen": 16379, "\u4ebb</w>": 61739, "\u6001": 60302, "kiffent</w>": 45108, "affich\u00e9e</w>": 15742, "mayotte</w>": 22609, "gen\u00e8ve</w>": 4135, "\u9dbb</w>": 66742, "\u00e8res-": 33084, "combusti": 49716, "bonneau</w>": 46369, "pr\u00e9texte</w>": 6252, "salvador</w>": 17378, "mos": 14935, "expos\u00e9s</w>": 6817, "dul": 14355, "d\u00e9terminants</w>": 19476, "them": 31896, "\u00e9veiller</w>": 22148, "attributions</w>": 17453, "\u89c2</w>": 57233, "zag": 31622, "\u2026</w>": 26821, "xd</w>": 22398, "bouge</w>": 12094, "\ud14c": 56002, "mauvais</w>": 1774, "\u5857</w>": 59102, "prioritairement</w>": 32859, "agiles</w>": 46232, "suffisante</w>": 6417, "paradi": 40764, "\u5ec3</w>": 62009, "\u66a2": 62169, "dore</w>": 14970, "ac</w>": 2265, "combat": 10773, "\u0daf": 56068, "exer\u00e7ait</w>": 32802, "\u5982</w>": 52898, "saisonniers</w>": 30436, "week-": 48701, "p\u00e9ladeau</w>": 35017, "\u88e4": 62732, "hire</w>": 46583, "\u16c9": 64003, "gorgement</w>": 48184, "\u1f91": 59986, "\u00e9troit</w>": 10670, "\u00e9tonnante</w>": 12682, "og\u00e8nes</w>": 24567, "\uc737": 63261, "\ub85c</w>": 52574, "\u4ef2</w>": 53284, "far</w>": 13199, "dirais</w>": 8798, "entin</w>": 23084, "plonger</w>": 9171, "\u9091": 54933, "studi": 27779, "sez</w>": 6141, "charts</w>": 33685, "\u1b26</w>": 61497, "principalement</w>": 1778, "d\u00e9p\u00ea": 18267, "mexi": 29501, "\u308e</w>": 60054, "existe-t-il</w>": 29833, "avorter</w>": 45938, "floraux</w>": 41210, "rais</w>": 7645, "\u17a3": 61479, "tailles</w>": 7944, "familier</w>": 15552, "\u4eee</w>": 57534, "\u80be": 62592, "sold\u00e9e</w>": 45021, "\u65bd</w>": 56209, "gazeuse</w>": 31804, "filmographie</w>": 45739, "coinc\u00e9</w>": 19470, "\u16df": 58940, "\ud6c4": 55430, "p.-": 39387, "ler": 7085, "\uc99d</w>": 67127, "petite</w>": 373, "fiscal": 48826, "wiki</w>": 27471, "coordonne</w>": 26908, "exotisme</w>": 37010, "verrous</w>": 40005, "lavez</w>": 42455, "gill": 24463, "c\u00e9t": 40909, "\u04c4</w>": 57960, "atl\u00e9tico</w>": 34556, "atari</w>": 37063, "\u02ca": 56393, "jag": 27044, "viendrait</w>": 12556, "optimale</w>": 8502, "d\u00e9veloppements</w>": 9993, "hydroxy": 18677, "repr\u00e9sentation</w>": 2854, "enferm\u00e9e</w>": 29871, "ax\u00e9s</w>": 24960, "exas": 47914, "\uab55</w>": 66870, "d\u00e9truisant</w>": 32027, "g\u00e9ante</w>": 21613, "\u9a5a</w>": 63025, "\u8352</w>": 59451, "tr": 1675, "\ua75f</w>": 56819, "\u8fd8</w>": 66367, "\u027d</w>": 55182, "cultur": 48102, "ba\u00ef": 20367, "\u06f9": 55192, "\u5fbc</w>": 62033, "\u5fcc": 62034, "\u6b23</w>": 54335, "r\u00e9gion</w>": 350, "\u025e": 54576, "d\u00e9plac": 21032, "lorsqu'</w>": 672, "\u529b</w>": 52518, "d\u00e9coup\u00e9</w>": 22121, "oui</w>": 688, "combattre</w>": 4471, "emp\u00eachant</w>": 16010, "d\u00e9fer": 18428, "\ucd1d": 61059, "cedex</w>": 19669, "911</w>": 30798, "syst\u00e9": 48175, "auditoire</w>": 19323, "vladi": 47543, "dong</w>": 22956, "\u822c</w>": 59440, "\ud835\udc75": 67495, "ense": 47555, "scl\u00e9rose</w>": 34771, "incitation</w>": 12400, "bouff": 14940, "incom": 13432, "shooter</w>": 45531, "continuez</w>": 12816, "\uc124</w>": 57316, "is\u00e9s</w>": 5099, "blanchiment</w>": 12907, "boyer</w>": 29583, "habi": 8868, "marie-louise</w>": 43321, "artisan</w>": 12354, "parues</w>": 46290, "officieux</w>": 39783, "\u9555</w>": 66516, "lemieux</w>": 37375, "misation</w>": 42987, "\u8f99</w>": 66359, "at-": 18502, "\u51b3": 61793, "cpa</w>": 35567, "\u69ea</w>": 65207, "chang\u00e9</w>": 2902, "\u5b30": 64824, "\u098b": 63683, "vou\u00e9e</w>": 30028, "\u6240</w>": 52044, "12</w>": 407, "b2</w>": 26961, "citations</w>": 14430, "\u4e3d": 53610, "artisan": 44113, "d\u00e9funte</w>": 36852, "squad": 44174, "fip</w>": 38442, "\u6641</w>": 65109, "benjam": 30896, "gueurs</w>": 34029, "\u0a17</w>": 59844, "fous</w>": 7855, "apostolique</w>": 20997, "\u5950</w>": 64770, "continuerons</w>": 30575, "\u79d1": 51688, "\ua681</w>": 63101, "simil": 17905, "\u9ad4</w>": 57288, "jar": 5973, "assey": 29406, "t\u00e9l\u00e9com</w>": 13130, "contribuent</w>": 7395, "\u819c</w>": 60688, "\u1015</w>": 59903, "espri": 34072, "\u4e1d</w>": 64449, "vice-ministre</w>": 40414, "toi</w>": 1005, "secr\u00e8tement</w>": 21265, "michel</w>": 1697, "cessation</w>": 15320, "reddition</w>": 26848, "\u200b": 56103, "absolument</w>": 2336, "activisme</w>": 39396, "\u8102": 65920, "placez</w>": 16917, "mensonge</w>": 9931, "pl\u00e9bis": 23036, "mares</w>": 46305, "dispositif</w>": 860, "\u6ee9</w>": 62300, "aimable</w>": 12625, "disposant</w>": 9235, "essayons</w>": 18776, "\u2665": 61619, "sexisme</w>": 32232, "\u9686</w>": 53092, "\u7092</w>": 65419, "erg": 23425, "actionnement</w>": 30173, "\u4f55": 51713, "fonc\u00e9es</w>": 46533, "\u571c": 64719, "masson</w>": 33577, "uni</w>": 8239, "\u062d": 49831, "reconnaissants</w>": 38866, "convo": 24001, "tablettes</w>": 8940, "a\u00ef</w>": 15494, "vard</w>": 46372, "poursuite</w>": 3702, "papers</w>": 42697, "mau": 3616, "portfolio</w>": 35964, "\ub625": 66979, "\u6885": 52070, "bou": 1001, "symptom": 47479, "rocher</w>": 9911, "clip": 30283, "b\u00e9ziers</w>": 26794, "\u7e2e</w>": 59410, "domain": 41368, "affectu": 34306, "casque</w>": 6693, "restri": 49526, "allai": 18421, "pascal</w>": 5124, "d\u00e9ploy\u00e9</w>": 14857, "rappel\u00e9</w>": 4173, "contenait</w>": 16593, "basket</w>": 10997, "croyais</w>": 11765, "enko</w>": 27752, "\uce35": 67157, "\u5d14": 52677, "dictature</w>": 9966, "veill\u00e9</w>": 34967, "annes</w>": 21769, "kids</w>": 25757, "\u2173": 52839, "wers</w>": 35091, "naturelle</w>": 2671, "doo</w>": 35707, "troc": 33593, "\u5dff</w>": 64884, "rival</w>": 9838, "bouvier</w>": 44935, "picto": 37555, "consid\u00e9rable</w>": 5016, "suffire</w>": 19416, "consider": 23438, "\u01d6": 57352, "trans-": 41576, "\u575a</w>": 60194, "bastion</w>": 24127, "\u6a29</w>": 56225, "\ua818": 59636, "\u00e9ditrice</w>": 44869, "astronomie</w>": 21802, "\u73fa</w>": 65530, "urne</w>": 21576, "instaur\u00e9e</w>": 32962, "\u7ee1</w>": 65840, "disette</w>": 40910, "diplom": 19134, "international": 45681, "quer</w>": 4209, "\u51e1": 55811, "jean-christophe</w>": 20928, "\u69c3</w>": 58363, "republique</w>": 28975, "trad</w>": 32502, "quin": 4960, "exp\u00e9rimentale</w>": 17768, "\u5261</w>": 64569, "bri\u00e8vement</w>": 11120, "\ua64b</w>": 58679, "les-": 7584, "\u00e9toffes</w>": 36184, "fourrage</w>": 42167, "pr\u00e9senteront</w>": 28173, "douin</w>": 46871, "rp</w>": 12964, "\u6377</w>": 58313, "by</w>": 1881, "buvette</w>": 42119, "bruce</w>": 15276, "\u8ae1": 66207, "r\u00e9unissait</w>": 37079, "administre</w>": 35762, "ve</w>": 1836, "rem\u00e9mor": 30658, "\u1d41</w>": 58949, "\u0936</w>": 52096, "comic</w>": 36588, "charente-": 49567, "r\u00e9servoirs</w>": 17818, "\u10d7</w>": 53787, "envoyait</w>": 29760, "lamy</w>": 29198, "fautes</w>": 8553, "\u00e9mo": 12350, "\u00e9ques": 50411, "rielle</w>": 44990, "syst": 17416, "entendais</w>": 34792, "iraquien</w>": 43857, "metropoli": 42381, "vivres</w>": 19473, "tention</w>": 48242, "\u4e48</w>": 60076, "kicherche": 56375, "minist\u00e8re</w>": 905, "\u5cb1": 59143, "\u592e": 52199, "recent</w>": 39906, "\u8b83": 60769, "\u3116</w>": 61695, "calcaire</w>": 14631, "\u1f03": 52887, "anxi\u00e9t\u00e9</w>": 15292, "\u1e11</w>": 54433, "oublie</w>": 6365, "\uacbf</w>": 63172, "competi": 34673, "sp\u00e9cialisation</w>": 15627, "\u0684": 61242, "\u542b": 56555, "\u0e44": 51598, "emp\u00eachent</w>": 13428, "\u7893": 62444, "\u0c01</w>": 63743, "\u00e9ch": 10030, "\u101c": 56932, "prin": 11347, "\u00fe": 48798, "r\u00e9f\u00e9rendum</w>": 6080, "d\u00e9go\u00fbt</w>": 24135, "\u17b1": 59956, "us</w>": 767, "s\u00e9paratiste</w>": 41815, "canalisation</w>": 15175, "antis\u00e9mi": 49983, "reaux</w>": 32706, "nadine</w>": 26552, "6,": 5808, "disparu</w>": 3952, "<special8>": 12, "ruptions</w>": 48773, "lawrence</w>": 21577, "pinces</w>": 25879, "recruter</w>": 10340, "ar": 399, "lynx</w>": 38761, "dresup": 50260, ".</w>": 16, "ventilateurs</w>": 33958, "drastiquement</w>": 42785, "persuader</w>": 20857, "accumul\u00e9</w>": 21837, "\u7504": 59341, "effici": 28012, "\u1f83": 61558, "imaginez</w>": 10559, "\u594f": 57598, "folie</w>": 5650, "3,2</w>": 18684, "survivants</w>": 11688, "radiateurs</w>": 33344, "\u7dbb</w>": 65805, "insatis": 24506, "compil\u00e9</w>": 41803, "d\u00e9clar": 11151, "moqueries</w>": 45237, "ould</w>": 32304, "auvergne</w>": 12787, "coagul": 40305, "verge</w>": 37721, "discipl": 23395, "registres</w>": 10609, "adoration</w>": 25266, "beau-fr\u00e8re</w>": 24337, "hab": 6639, "na\u00effs</w>": 37608, "r\u00e9sidentielle</w>": 31418, "\u5c38": 60256, "\u0448": 49737, "desse</w>": 41183, "-le</w>": 23096, "haricots</w>": 17005, "partiel</w>": 7439, "onglet</w>": 12145, "cruels</w>": 25110, "r\u00e9veiller</w>": 11400, "qu\u00e8rent</w>": 27744, "abricots</w>": 33177, "g\u00e9n\u00e9ralis\u00e9es</w>": 42439, "sit\u00e9s</w>": 41371, "\u4e9e": 54151, "alco": 15797, "\u5955": 60218, "oto</w>": 33532, "orphel": 48063, "subventions</w>": 5608, "d\u00e9serts</w>": 25617, "perche</w>": 22751, "\u0eb3</w>": 58033, "restaurateur</w>": 37378, "198</w>": 29333, "devises</w>": 12618, "aden</w>": 36138, "\u9996</w>": 53565, "d\u00e9couvrent</w>": 12251, "\u7de3": 62526, "arta": 48126, "cigar": 47791, "\u91a4": 60846, "\u0272</w>": 50882, "est-on</w>": 40015, "\u0e30</w>": 53349, "parmen": 45283, "ralli\u00e9</w>": 38988, "\u0a99</w>": 63706, "trib": 22306, "finaliste</w>": 17984, "grimp\u00e9</w>": 25127, "\ub291": 56345, "ax\u00e9es</w>": 25125, "g\u00e9ants</w>": 10088, "\u0981</w>": 63681, "quilles</w>": 29701, "avois</w>": 42691, "\u029a</w>": 61161, "\u5e83": 53144, "el.": 19782, "men\u00e9</w>": 3727, "forces</w>": 966, "normalisation</w>": 14279, "rev\u00eat</w>": 14927, "tanie</w>": 46124, "sich</w>": 31911, "dispers\u00e9</w>": 32084, "\u6447": 59224, "x\u00e9": 29478, "folk</w>": 14447, "\ub95c": 66998, "confiait</w>": 31364, "gamers</w>": 43432, "\u09a0</w>": 57392, "\u932f</w>": 58625, "scr": 38767, "inger</w>": 19005, "joyaux</w>": 34926, "syndicaliste</w>": 28190, "\u090c</w>": 58849, "\uff4b</w>": 63365, "nous-m\u00eame</w>": 39174, "\u5219": 60139, "\u6a1b</w>": 65214, "oign": 23516, "fratrie</w>": 35505, "combes</w>": 33484, "cit\u00e9": 44797, "\u03bf</w>": 47355, "retir\u00e9</w>": 7630, "reliques</w>": 21943, "audits</w>": 29060, "quitte</w>": 3542, "bute</w>": 32361, "\u7cd6</w>": 56274, "dr\u00f4me</w>": 22578, "\ub2ff": 59652, "apprenant</w>": 13947, "london": 47716, "\uc783": 67111, "\u00e9ping": 50149, "r\u00e9it\u00e8re</w>": 32445, "invari": 30931, "\u70e6": 62329, "hack": 32386, "tian": 34746, "quoiqu'</w>": 11117, "portion</w>": 9135, "pr\u00e9f\u00e9rant</w>": 19420, "dner</w>": 39984, "c\u0153ur</w>": 784, "vrier</w>": 45688, "que-</w>": 40591, "antill": 22320, "privatif</w>": 25768, "\u96b1</w>": 58643, "\uc8c4</w>": 63273, "ick</w>": 45200, "patrouilles</w>": 26955, "expliqu\u00e9s</w>": 42319, "chevilles</w>": 26503, "pistolet</w>": 13967, "r\u00e9veill\u00e9e</w>": 37131, "21h": 34555, "municipales</w>": 7061, "\u10db</w>": 55746, "425</w>": 39103, "sylvi": 39136, "p\u00e9niten": 49047, "\u93ad": 57268, "\u55e3</w>": 54657, "onniste</w>": 41924, "fouetter</w>": 24438, "m\u00e2choire</w>": 22522, "ebola</w>": 20212, "daily</w>": 18829, "playstation</w>": 13839, "1795</w>": 31653, "remportant</w>": 19456, "\u7522</w>": 59345, "\uc6b4": 54766, "transporte</w>": 18527, "\u4fc3</w>": 60099, "2012-": 33429, "\u997c</w>": 63009, "antic</w>": 48250, "personnage</w>": 1655, "\u6e49</w>": 65338, "\u204a</w>": 56104, "arte</w>": 13879, "passionne</w>": 25072, "aime": 37974, "brille</w>": 17777, "\u1ec5</w>": 52379, "tronche</w>": 34446, "ab</w>": 6791, "\u1f44": 50695, "dou": 2535, "\u540e": 52323, "\u136f</w>": 63902, "\u00e9tanche</w>": 16679, "poussin</w>": 39664, "accueil</w>": 1077, "barques</w>": 41139, "\u858f": 60726, "\u5012": 56528, "seck</w>": 39400, "\u8840</w>": 55386, "coh\u00e9rentes</w>": 34964, "additionnelles</w>": 26960, "appelons</w>": 17721, "communes</w>": 1455, "\u52cb</w>": 56545, "savoir</w>": 322, "\u00e9pini\u00e8re</w>": 46324, "pi\u00e9ton</w>": 30608, "ml": 21533, "\u6e7f": 65342, "panama</w>": 16120, "accrocher</w>": 12445, "sabo": 43050, "rapportent</w>": 13336, "picasso</w>": 19350, "\u749e": 65559, "\u8471": 66034, "d\u00e9veloppera</w>": 41867, "eh": 9813, "z-le</w>": 22722, "laqu\u00e9</w>": 37448, "\u51fa</w>": 55812, "\u4eac": 50918, "tionnels</w>": 12621, "m\u00e9tiers</w>": 3581, "\u819d</w>": 62613, "sub</w>": 38929, "yoann</w>": 40948, "isto": 42946, "ym": 12402, "graphismes</w>": 17475, "toll\u00e9</w>": 37161, "\u00e9closion</w>": 27197, "\u6fec</w>": 59312, "avoisin": 32320, "disiez</w>": 43256, "duquel</w>": 4475, "\u217d": 51709, "terrestre</w>": 7641, "ravi": 11965, "kirghi": 47695, "\u8525</w>": 62675, "\u00e9clu": 48845, "am\u00e9lie</w>": 20621, "vinyles</w>": 42953, "\u6cad": 60457, "\u217a</w>": 58107, "refusent</w>": 9947, "\uab60</w>": 66876, "lisi\u00e8re</w>": 29101, "yale</w>": 43109, "\u5435": 61851, "\u06f5": 59826, "get": 15366, "\u8a89</w>": 62751, "filtres</w>": 10618, "cach\u00e9s</w>": 13137, "subsidiaires</w>": 37015, "\u968d": 62958, "r\u00e9no": 47524, "zam": 21412, "n\u0153ud</w>": 19298, "05</w>": 3231, "\u6f5c</w>": 59308, "\u5e62</w>": 64893, "polym\u00e9risation</w>": 29676, "valable</w>": 6387, "\u6c5c</w>": 65268, "laiti\u00e8res</w>": 46007, "partenari": 45939, "graphiste</w>": 28035, "\ubc31": 52336, "tient</w>": 1558, "croyance</w>": 10932, "d\u00e9ter": 18697, "\u985e</w>": 57286, "rox": 28453, "\u06c7</w>": 55453, "standardis": 23397, "\u5783": 64729, "contraven": 50146, "\u6e56</w>": 52203, "kol": 11414, "chiites</w>": 21161, "exceptions</w>": 10511, "g\u00ean\u00e9</w>": 22708, "\u5c94": 58267, "lecteurs</w>": 3591, "transist": 50407, "acc\u00e9dant</w>": 44210, "\u76bf</w>": 60570, "derons</w>": 32109, "fnu": 48904,
[...]
